<pad>	0
<unk>	0
<s>	0
</s>	0
<ans>	0
</ans>	0
▁	-2.41543
▁کے	-3.24082
▁میں	-3.5624
▁کی	-3.62499
▁،	-3.65262
؟	-3.98648
▁اور	-4.13919
▁سے	-4.20591
▁ہے	-4.3095
▁کو	-4.312
▁کیا	-4.37663
▁کا	-4.39152
▁نے	-4.42449
▁پر	-4.45433
▁ایک	-4.8069
▁اس	-5.12489
▁کس	-5.15408
▁تھا	-5.17064
▁لئے	-5.23424
▁ہے۔	-5.24028
▁طور	-5.30071
▁ہیں	-5.41812
▁گیا	-5.44381
)	-5.45778
▁جو	-5.58902
وں	-5.59207
▁(	-5.60306
▁کرنے	-5.65443
▁ساتھ	-5.65908
▁کون	-5.72593
▁کہ	-5.796
▁جس	-5.81251
▁جاتا	-5.83845
▁زیادہ	-5.85792
ی	-5.99124
▁سی	-6.06882
▁سب	-6.07582
▁ہیں۔	-6.0778
▁تک	-6.12783
▁تھا۔	-6.15106
▁بعد	-6.15672
▁یہ	-6.1713
▁استعمال	-6.17506
▁تھی	-6.21056
س	-6.21792
ز	-6.2216
▁یا	-6.31496
▁بھی	-6.31829
▁ان	-6.33765
▁نام	-6.39009
▁سال	-6.42344
▁سا	-6.43751
▁دیا	-6.47705
۔	-6.48916
▁نہیں	-6.50234
▁تھے	-6.51157
،	-6.53731
▁والے	-6.55525
▁کرتا	-6.5927
▁کرتے	-6.59637
▁شامل	-6.59854
▁پہلے	-6.60466
▁ڈی	-6.60555
▁کر	-6.61097
▁وہ	-6.63249
▁اپنے	-6.63598
▁کم	-6.66719
▁ہوا	-6.69939
ا	-6.70029
▁شہر	-6.70072
▁ذریعہ	-6.70486
▁گئی	-6.74802
ر	-6.75995
▁دی	-6.77542
▁عام	-6.77948
▁بہت	-6.78738
ن	-6.78925
▁کب	-6.80035
▁آف	-6.80661
▁دوران	-6.81664
▁ہونے	-6.82705
▁کیا۔	-6.82859
و	-6.83874
▁کہا	-6.84502
▁بی	-6.86727
▁جب	-6.86995
▁کتنے	-6.90895
▁طرح	-6.92124
ک	-6.92616
▁غیر	-6.93464
نگ	-6.9459
م	-6.94892
▁کچھ	-6.95279
▁شروع	-6.95435
▁حاصل	-6.96854
▁دو	-6.97213
▁اے	-6.97477
ڈ	-6.97796
ل	-6.98437
▁پی	-6.99439
▁صدی	-6.99693
▁ہوئے	-7.00513
▁جنگ	-7.00922
▁ایس	-7.03135
▁قسم	-7.05069
▁لیکن	-7.05382
▁اپنی	-7.06436
▁کام	-7.06983
ہ	-7.07552
▁وقت	-7.08518
▁جیسے	-7.09553
▁ہوتا	-7.10675
▁اہم	-7.11058
▁طرف	-7.11393
▁امریکی	-7.1143
▁وجہ	-7.13863
یں	-7.14229
▁کہاں	-7.146
▁ہی	-7.15979
-	-7.17807
٪	-7.18092
▁دور	-7.18633
ے	-7.18787
▁آئی	-7.19205
▁تیار	-7.19216
▁والی	-7.19258
▁و	-7.20525
:	-7.21217
▁تقریبا	-7.22251
▁تھی۔	-7.22612
▁نیو	-7.23164
▁ای	-7.23589
▁ویں	-7.24504
ٹ	-7.26181
▁تھے۔	-7.26447
ت	-7.2706
▁اسے	-7.27263
▁تر	-7.28192
▁ہوئی	-7.2916
▁بن	-7.3073
▁حکومت	-7.31114
▁آبادی	-7.31246
نا	-7.31877
▁حصہ	-7.32387
▁پیش	-7.33232
▁کرنا	-7.33702
▁پہلی	-7.34643
▁بار	-7.35016
▁بڑے	-7.35259
▁متحدہ	-7.36597
▁گئے	-7.3755
▁تعمیر	-7.4015
▁ایم	-7.40682
▁کرتی	-7.40923
▁بارے	-7.40973
▁جانا	-7.41103
▁ٹی	-7.4131
▁جاتی	-7.42408
▁صرف	-7.42699
▁تو	-7.43398
▁مختلف	-7.43685
ری	-7.43782
▁دہائی	-7.44047
▁جاری	-7.44227
▁کتنی	-7.44239
▁بنیادی	-7.44253
▁امریکہ	-7.44651
▁آر	-7.45456
▁کی۔	-7.45463
▁ملک	-7.45545
▁-	-7.45864
▁ہوتی	-7.45892
▁دنیا	-7.459
ون	-7.46461
پ	-7.46482
s	-7.46678
▁ہر	-7.46961
▁زبان	-7.46967
▁این	-7.48339
یا	-7.49006
ف	-7.4918
▁جن	-7.50014
▁دیگر	-7.50137
▁دوسرے	-7.50194
ش	-7.50946
▁قائم	-7.52291
▁پیدا	-7.52346
▁واقع	-7.52587
▁تمام	-7.52873
▁کسی	-7.5418
▁بڑی	-7.55617
▁پہلا	-7.55714
▁گروپ	-7.56113
▁خلاف	-7.57111
▁وی	-7.60054
▁شمالی	-7.60381
▁اب	-7.60786
▁اسکول	-7.60861
▁ملین	-7.61006
▁جسے	-7.61117
▁یونیورسٹی	-7.61218
▁لوگوں	-7.61228
▁مطابق	-7.61685
ان	-7.61687
▁ابتدائی	-7.61722
▁جبکہ	-7.62059
▁درمیان	-7.62251
▁کیے	-7.63561
▁کردیا	-7.63618
▁ہوتے	-7.64344
▁قانون	-7.64713
▁ایف	-7.64743
▁تشکیل	-7.6505
▁ریاست	-7.65095
▁ریاستہائے	-7.65104
▁ایل	-7.65567
گ	-7.65829
لی	-7.67508
سی	-7.67576
▁ہو	-7.68047
ب	-7.69008
▁ترقی	-7.70088
▁سلطنت	-7.70172
▁شدہ	-7.70482
▁یو	-7.70864
▁17	-7.70921
ات	-7.71218
▁خاص	-7.72283
▁نظام	-7.72408
▁18	-7.72839
▁برطانیہ	-7.72943
▁عمل	-7.7314
▁جان	-7.73407
▁درجہ	-7.73807
▁علاقے	-7.74657
چ	-7.74755
▁جی	-7.74911
▁تین	-7.74941
▁بڑا	-7.75293
▁بنیاد	-7.75929
ین	-7.75999
▁۔	-7.76452
▁لی	-7.7652
▁او	-7.76835
▁فیصد	-7.7693
▁مقامی	-7.7698
▁مابین	-7.76989
▁تاریخ	-7.77146
▁پیمانے	-7.77699
سٹ	-7.77767
▁والا	-7.7797
▁مغربی	-7.78292
▁دوسری	-7.78834
▁دینے	-7.79243
▁کتنا	-7.79437
د	-7.80084
▁ختم	-7.80165
▁دونوں	-7.80531
تا	-7.80751
▁برطانوی	-7.80812
▁فراہم	-7.809
▁اصل	-7.81161
▁مکمل	-7.81328
▁پاس	-7.81363
▁تبدیل	-7.81744
نے	-7.81827
▁بال	-7.81983
▁اکثر	-7.82258
▁جنوبی	-7.82464
▁انہوں	-7.82825
▁ذریعے	-7.83193
▁سرکاری	-7.83195
▁علاقوں	-7.83823
▁دوبارہ	-7.85542
▁مشرقی	-7.8608
▁علاوہ	-7.86187
▁قابل	-7.86316
▁کیونکہ	-7.86836
▁چرچ	-7.87424
▁صدر	-7.87428
▁سمجھا	-7.8748
1	-7.87555
▁جانے	-7.87737
▁3	-7.88629
▁کار	-7.8891
▁بندی	-7.89764
▁رہا	-7.90194
▁نئے	-7.90214
▁فرانسیسی	-7.90224
▁اعلی	-7.90616
▁گیا۔	-7.90674
▁کمپنی	-7.90917
▁تحت	-7.90955
▁بین	-7.91237
▁جگہ	-7.91269
▁چیز	-7.9131
▁اجازت	-7.91362
▁سکتا	-7.91364
▁حصے	-7.91499
▁جرمن	-7.91634
▁فٹ	-7.91844
▁جدید	-7.91972
▁2	-7.92415
▁مشہور	-7.92458
ٹر	-7.92741
▁کن	-7.93356
▁مین	-7.93371
ج	-7.93491
ائی	-7.9377
▁جہاں	-7.93852
نی	-7.94074
4	-7.94141
▁کردہ	-7.94211
▁لے	-7.94377
e	-7.94706
▁گھر	-7.94947
▁موسم	-7.95177
▁فی	-7.9557
▁آخر	-7.95644
▁کنٹرول	-7.95872
▁مدد	-7.97083
▁زمین	-7.97487
ق	-7.97567
▁چین	-7.97608
▁یورپی	-7.97927
▁ممالک	-7.97977
▁دن	-7.98152
▁آغاز	-7.98781
▁کوئی	-7.98858
▁سسٹم	-7.98928
▁خود	-7.99069
▁خیال	-8.00344
▁سٹی	-8.00784
▁مثال	-8.01004
را	-8.01235
▁نتیجے	-8.01457
ور	-8.01548
▁کوشش	-8.01768
رو	-8.01842
▁سطح	-8.02075
ٹی	-8.0209
▁تقسیم	-8.02289
▁لیگ	-8.02625
▁ہم	-8.02656
▁15	-8.02815
▁16	-8.03174
▁ریکارڈ	-8.03236
▁اعلان	-8.03358
▁میل	-8.04743
▁تعلیم	-8.0493
▁ڈالر	-8.04939
▁قدیم	-8.05135
▁اصطلاح	-8.05317
▁ضرورت	-8.05531
▁یونین	-8.05697
▁یونانی	-8.06073
▁بنایا	-8.06207
تھ	-8.06304
▁فوج	-8.06351
i	-8.0643
▁عظیم	-8.06556
▁سیاسی	-8.06978
▁یارک	-8.07037
▁فلم	-8.07194
▁کبھی	-8.07361
▁انگریزی	-8.0792
▁بیان	-8.08017
▁لوگ	-8.08074
a	-8.08826
تی	-8.08895
▁حمایت	-8.08963
▁مسیح	-8.09009
▁موسیقی	-8.09079
▁خاندان	-8.09495
▁فرانس	-8.09675
▁منتقل	-8.10192
▁سینٹ	-8.10208
ٹا	-8.10377
▁تاہم	-8.10436
▁سیزن	-8.1048
▁اندر	-8.10564
▁قریب	-8.10567
▁اثر	-8.10639
▁فوجی	-8.10884
▁لیا	-8.10901
▁10	-8.11012
▁بنانے	-8.113
▁تعداد	-8.11429
ع	-8.11719
▁وسیع	-8.11763
▁رنگ	-8.1182
▁اینڈ	-8.11833
▁لندن	-8.1193
▁دیا۔	-8.122
▁جا	-8.12756
▁حیثیت	-8.13023
▁کئی	-8.13283
▁مقابلے	-8.13362
▁نئی	-8.13624
ار	-8.13845
▁شکل	-8.14032
▁ڈیزائن	-8.14043
▁افراد	-8.14386
▁معاہدے	-8.14471
▁وسطی	-8.14501
▁جاسکتا	-8.14643
▁20	-8.14673
▁کردار	-8.14742
▁فروخت	-8.14988
▁موجود	-8.15154
▁1	-8.15225
وا	-8.15558
▁زندگی	-8.15593
▁چار	-8.16544
▁رکھا	-8.16681
▁جنوب	-8.1703
▁گا	-8.17268
2	-8.17584
▁کل	-8.17785
▁کمی	-8.18001
▁قومی	-8.18715
ول	-8.1876
▁مبنی	-8.18767
کس	-8.19121
▁موت	-8.19499
▁قبل	-8.19668
▁الاقوامی	-8.20028
▁ہوائی	-8.20093
وس	-8.20292
▁نسل	-8.20689
▁ویسٹ	-8.20816
▁طاقت	-8.20906
وی	-8.21334
ح	-8.21374
'	-8.21501
▁یورپ	-8.21536
y	-8.22066
ٹو	-8.22112
اس	-8.22219
▁جاتے	-8.22913
بی	-8.23111
▁لیے	-8.23948
▁رہے	-8.24247
▁مرکز	-8.2425
▁/	-8.24452
▁الگ	-8.24533
▁متاثر	-8.24543
▁لائن	-8.24796
▁لینڈ	-8.25225
▁رومن	-8.25343
کی	-8.25722
نٹ	-8.25874
▁آخری	-8.26342
▁بادشاہ	-8.26371
▁میٹر	-8.26583
▁نظر	-8.26673
▁عوامی	-8.26751
▁پارٹی	-8.26927
▁بات	-8.26998
ال	-8.27114
▁م	-8.27459
رز	-8.27817
▁پانی	-8.28454
.	-8.28625
▁انہیں	-8.28744
▁پارک	-8.28911
▁ہوا۔	-8.28978
سن	-8.29152
▁توانائی	-8.29238
0	-8.2929
یو	-8.29432
▁12	-8.29569
▁5	-8.29654
؛	-8.297
▁مشتمل	-8.29736
▁کھیل	-8.30041
▁شائع	-8.30237
▁مل	-8.30383
تے	-8.30681
▁چینی	-8.30831
▁حملہ	-8.31274
▁ایچ	-8.31561
▁نو	-8.31583
بر	-8.32094
▁شمال	-8.32127
▁انسانی	-8.32468
▁تھیں	-8.32577
▁اپنا	-8.33044
▁نیشنل	-8.33194
▁جائے	-8.33368
▁وضاحت	-8.33401
▁ٹیلی	-8.33528
o	-8.33841
▁ظاہر	-8.33886
▁مطلب	-8.33921
▁اضافہ	-8.34025
▁جنرل	-8.34036
▁لا	-8.34169
▁پرجاتیوں	-8.346
▁مشرق	-8.34617
▁ال	-8.35209
لو	-8.35286
▁عمر	-8.35504
ڈو	-8.35532
ٹن	-8.35548
▁2010	-8.36245
n	-8.3633
▁مقصد	-8.36561
▁حالانکہ	-8.36896
▁برقرار	-8.37205
▁جمہوریہ	-8.37216
▁کالج	-8.37273
▁موجودہ	-8.37379
▁ہاؤس	-8.37449
▁فن	-8.37897
▁مرکزی	-8.38008
▁کلومیٹر	-8.38071
▁اسٹیشن	-8.38254
▁حکمرانی	-8.38595
▁پانچ	-8.3861
▁قبضہ	-8.38615
▁مذہبی	-8.38696
▁حوالہ	-8.38724
▁روم	-8.38942
▁روایتی	-8.39041
▁بھر	-8.39091
ڈی	-8.39333
▁جزیرے	-8.39493
▁انگلینڈ	-8.40046
▁14	-8.40259
▁واحد	-8.40601
▁سوویت	-8.41466
▁سر	-8.41593
▁قیادت	-8.41609
▁آزاد	-8.41728
لا	-8.41791
▁6	-8.41947
▁4	-8.42186
کا	-8.42212
▁بے	-8.42413
▁اگر	-8.42654
من	-8.42667
▁بجائے	-8.42854
t	-8.4356
▁دیتا	-8.43641
▁کونسل	-8.43801
ڈر	-8.44347
▁11	-8.44518
▁مئی	-8.44606
5	-8.44674
▁پھر	-8.44815
▁آزادی	-8.4489
m	-8.44918
▁باہر	-8.44929
نس	-8.4497
▁پیرس	-8.45146
▁مارچ	-8.45339
▁واپس	-8.45385
یت	-8.45423
ٹس	-8.455
▁طلباء	-8.4551
▁رکھنے	-8.45634
u	-8.45683
▁شکار	-8.45723
▁ٹیم	-8.45939
▁ہائی	-8.46117
▁13	-8.46173
▁مطالعہ	-8.46215
ما	-8.46272
▁خدمات	-8.46333
▁شو	-8.46437
▁دار	-8.46734
g	-8.46861
▁وکٹوریہ	-8.474
▁ستمبر	-8.47403
▁سکتے	-8.47521
▁19	-8.47665
یشن	-8.47881
▁کتاب	-8.48027
▁منتخب	-8.48119
▁ادا	-8.48138
▁8	-8.4821
▁خواتین	-8.48239
▁رکھی	-8.48375
l	-8.48939
▁ہسپانوی	-8.49038
پی	-8.49187
A	-8.49247
▁2011	-8.49571
▁مار	-8.49704
▁تاریخی	-8.49856
کو	-8.50038
▁2008	-8.50068
▁روسی	-8.50254
c	-8.50398
▁سالوں	-8.50551
▁جون	-8.5108
▁شہنشاہ	-8.51168
▁ری	-8.51251
▁بدھ	-8.51307
▁اوائل	-8.51427
▁اگرچہ	-8.51497
▁میوزک	-8.51789
▁کیسے	-8.51808
▁متعدد	-8.51913
▁ملکہ	-8.52029
▁بل	-8.52055
▁ہندوستان	-8.52116
▁مغرب	-8.5267
▁چھ	-8.52717
▁حد	-8.53181
▁نہ	-8.5332
▁وزیر	-8.53553
▁2007	-8.53554
▁رہی	-8.53959
▁متعارف	-8.54057
7	-8.54091
▁نقصان	-8.5414
▁قانونی	-8.54305
▁دوسرا	-8.54569
▁دریافت	-8.5457
▁جمع	-8.54578
▁آپ	-8.5492
▁دیتے	-8.54973
p	-8.55142
▁لفظ	-8.55355
▁لکھا	-8.55385
▁نسلی	-8.55392
▁میک	-8.55569
▁افریقی	-8.55728
▁اسی	-8.56008
6	-8.56085
▁جنوری	-8.5615
▁پروگرام	-8.56177
▁شہری	-8.56199
▁نمبر	-8.56509
▁بغیر	-8.56509
▁ذمہ	-8.5664
▁تاکہ	-8.56771
▁بند	-8.56779
▁7	-8.57265
▁نقطہ	-8.57296
▁2013	-8.57304
کر	-8.57528
▁انداز	-8.57609
▁روشنی	-8.57875
▁بولی	-8.57934
▁2009	-8.57961
▁مواد	-8.57962
▁کلب	-8.57973
▁چھوڑ	-8.5805
▁مقام	-8.58064
▁ایئر	-8.58126
▁قرار	-8.58222
ئی	-8.58236
▁بیل	-8.58302
▁تجویز	-8.58355
▁وفاقی	-8.58355
▁اوسط	-8.58355
▁شکست	-8.58622
▁جرمنی	-8.58697
زم	-8.58902
▁لڑائی	-8.59299
▁C	-8.59387
▁نمائندگی	-8.59694
▁خصوصیات	-8.59865
اں	-8.60282
▁سینٹر	-8.60317
▁شوپن	-8.60371
▁حصوں	-8.60507
▁طویل	-8.60507
00	-8.60662
▁گی	-8.60883
▁شرح	-8.60916
3	-8.60991
▁تجارتی	-8.6109
▁سو	-8.61276
▁علاقہ	-8.61326
▁دے	-8.61341
▁دارالحکومت	-8.61463
▁طریقہ	-8.61601
▁مقابلہ	-8.61876
▁ورک	-8.61925
▁چھوٹے	-8.62014
▁2014	-8.62164
▁آج	-8.62215
▁ثقافت	-8.62337
▁تعلقات	-8.62465
▁کینیڈا	-8.62568
▁اختیار	-8.62662
▁کیوں	-8.62787
می	-8.62815
▁کیتھولک	-8.62845
▁جیسا	-8.63019
▁مر	-8.63315
▁مذہب	-8.6344
▁شناخت	-8.63544
ڈا	-8.63924
▁جہاز	-8.64161
جی	-8.64608
▁بچوں	-8.64696
▁اکتوبر	-8.64813
▁پایا	-8.64819
▁دیکھا	-8.64862
▁مقبول	-8.64934
▁معاشی	-8.65339
▁انتخاب	-8.6538
▁اپریل	-8.6567
▁خطے	-8.65699
▁تنظیم	-8.66007
خ	-8.6623
▁منسلک	-8.66243
▁رہتے	-8.66249
▁2012	-8.66253
▁کاؤنٹی	-8.66495
▁مشترکہ	-8.66971
▁سفر	-8.67273
▁اختتام	-8.67401
▁ریاستوں	-8.67402
▁نمایاں	-8.67403
کن	-8.67479
سل	-8.67524
▁اینٹی	-8.67712
▁بو	-8.67814
▁ہیون	-8.67826
▁لکڑی	-8.67839
▁مزید	-8.67986
▁قدرتی	-8.67992
I	-8.68422
▁جولائی	-8.68427
▁اگست	-8.68574
▁نظریہ	-8.68739
▁آئین	-8.68776
▁حملے	-8.68903
▁گئی۔	-8.69466
▁اسٹریٹ	-8.69468
▁دسمبر	-8.6976
▁فری	-8.69959
▁خدا	-8.70212
▁شہروں	-8.70216
▁نیٹ	-8.70341
▁فتح	-8.70659
▁بورڈ	-8.70763
▁مالی	-8.71385
پا	-8.71504
▁کردیا۔	-8.71549
▁فیصلہ	-8.71566
▁گر	-8.71647
▁تحریک	-8.71655
▁ذکر	-8.71718
یوں	-8.71835
▁انجام	-8.7187
▁ایکٹ	-8.71942
▁دی۔	-8.72009
گو	-8.72015
▁توجہ	-8.72022
▁ورلڈ	-8.72026
▁منعقد	-8.72244
▁تصور	-8.72276
▁متعلق	-8.72398
▁افریقہ	-8.72481
▁مجموعی	-8.72838
▁معیار	-8.72962
9	-8.73
▁افواج	-8.73096
▁رکھتا	-8.73259
▁آرٹ	-8.73364
▁مارکیٹ	-8.73476
▁معیاری	-8.73649
▁والوں	-8.73732
▁مضبوط	-8.73937
▁راست	-8.7397
گا	-8.74097
▁خدمت	-8.74337
▁شادی	-8.74338
▁روس	-8.7434
▁ریاستی	-8.74433
▁بغاوت	-8.74493
▁ناصر	-8.74493
▁پتہ	-8.74494
▁کامیابی	-8.745
▁پال	-8.74525
▁سان	-8.74635
▁آیا	-8.74697
▁جین	-8.74716
▁مت	-8.74868
ٹین	-8.75005
▁براہ	-8.75124
▁یونان	-8.75335
]	-8.75411
▁عرصے	-8.75436
▁کلاسیکی	-8.75594
▁سفید	-8.75752
▁2006	-8.75759
,	-8.75769
▁سائنس	-8.75858
▁پیداوار	-8.76084
▁ویژن	-8.76388
فی	-8.7639
▁سالانہ	-8.76462
▁محدود	-8.76547
گر	-8.766
▁شخص	-8.76685
▁سروس	-8.76739
▁سبب	-8.7689
▁اپ	-8.76906
▁بنا	-8.76949
▁عالمی	-8.7704
▁کرکے	-8.77058
▁2015	-8.77138
▁البم	-8.7749
▁داخل	-8.77513
▁مدت	-8.7775
▁جارج	-8.77946
وم	-8.77955
k	-8.78162
اؤ	-8.78199
al	-8.78245
▁میکسیکو	-8.78319
▁ٹو	-8.78331
8	-8.78349
▁ممکنہ	-8.78404
▁توسیع	-8.78481
یم	-8.78534
▁'	-8.78787
▁پسند	-8.79007
▁دفاع	-8.79054
ڑ	-8.79383
▁تبدیلی	-8.79556
▁ماڈل	-8.79598
▁اتحاد	-8.79861
▁زندہ	-8.79957
▁مختصر	-8.79977
▁یہودی	-8.80015
▁انقلاب	-8.80033
ص	-8.80061
رین	-8.80264
▁حرارت	-8.80287
▁کیڑے	-8.80289
▁بہتر	-8.80432
▁نومبر	-8.80619
کل	-8.8079
▁تعلق	-8.81075
دی	-8.81154
▁فوجیوں	-8.8123
مین	-8.8126
▁سیاہ	-8.81346
▁آس	-8.81419
▁خصوصی	-8.82013
/	-8.82139
▁(19	-8.82196
▁پیچھے	-8.82296
▁راک	-8.82408
▁سائٹ	-8.82434
وک	-8.82465
▁ڈچ	-8.82543
▁وے	-8.82552
▁تعریف	-8.82635
▁دستخط	-8.82804
یل	-8.82971
▁محفوظ	-8.82974
▁نپولین	-8.82974
▁جاپان	-8.8323
▁بڑھ	-8.83268
S	-8.83342
▁پولیس	-8.83568
▁ہجرت	-8.83658
▁کرے	-8.83858
▁شاہی	-8.8388
▁اوپر	-8.83897
▁حقوق	-8.84001
▁پوپ	-8.84071
▁علم	-8.84251
▁معیشت	-8.84518
▁ترین	-8.84595
▁مصر	-8.84664
▁منصوبہ	-8.84864
▁رکھتے	-8.8487
اب	-8.8491
▁اسکولوں	-8.84918
▁نقل	-8.85038
رک	-8.85158
▁قیمت	-8.85183
▁قرون	-8.85213
▁A	-8.85326
▁جانوروں	-8.85404
f	-8.8553
▁ویڈیو	-8.85712
▁انتخابات	-8.8579
▁ثقافتی	-8.85864
▁آہستہ	-8.85911
▁سمندری	-8.85934
▁مستقل	-8.86086
▁بیس	-8.8614
▁صلاحیت	-8.86422
en	-8.86487
▁دیر	-8.8656
in	-8.86606
▁چاہئے	-8.86641
▁تیزی	-8.86781
▁مربع	-8.86791
▁ریڈیو	-8.86816
▁گھروں	-8.86827
▁تھیٹر	-8.86922
▁تسلیم	-8.87145
▁فورس	-8.87151
▁گرد	-8.87432
▁آلات	-8.87514
▁2005	-8.87694
▁دستیاب	-8.87792
▁وسط	-8.87795
▁رپورٹ	-8.87841
▁پودوں	-8.88037
▁2000	-8.88264
z	-8.88364
▁معاشرتی	-8.88395
▁میوزیم	-8.88395
▁لگایا	-8.88419
▁بینڈ	-8.88651
▁تھیں۔	-8.88657
▁نجی	-8.88778
▁لاطینی	-8.88848
▁اوکلاہوما	-8.89117
▁جزائر	-8.89117
▁جزیرہ	-8.89298
▁سامنا	-8.89299
▁نافذ	-8.89479
▁نتیجہ	-8.89479
▁25	-8.89583
رس	-8.89614
▁بالآخر	-8.89843
d	-8.89875
▁کامیاب	-8.90018
انا	-8.90215
▁تباہ	-8.9031
▁انتظام	-8.90504
▁گا۔	-8.90534
▁سکتی	-8.90583
▁معاہدہ	-8.90759
▁کاری	-8.90843
▁بلین	-8.90847
اک	-8.90959
▁پورے	-8.9113
▁آمدنی	-8.91141
سا	-8.91264
▁عرب	-8.91381
▁جسم	-8.91386
▁اعظم	-8.91498
▁سابق	-8.91601
▁نیا	-8.91692
▁ورژن	-8.91869
▁لو	-8.92016
▁گئیں	-8.92134
▁ساحل	-8.92186
چی	-8.92369
▁لینے	-8.92408
▁جنہوں	-8.9243
مو	-8.92754
پر	-8.92849
▁قبول	-8.92971
▁صحت	-8.92992
▁منظم	-8.92992
▁فروری	-8.92997
▁سابقہ	-8.93043
▁ہونا	-8.93223
▁قوم	-8.93324
▁بیک	-8.93349
▁بہترین	-8.93397
▁خصوصیت	-8.93447
▁ہیڈ	-8.93515
▁کورٹ	-8.93611
▁کیں	-8.93664
جو	-8.93732
h	-8.93868
▁دریا	-8.93923
ائ	-8.93931
▁فام	-8.93959
سٹر	-8.9406
▁مخصوص	-8.94317
▁S	-8.94328
▁یہاں	-8.94419
▁تجارت	-8.94456
▁کانگریس	-8.9451
بو	-8.94714
▁جے	-8.94718
▁ڈیل	-8.94738
▁چلتا	-8.94899
▁اول	-8.94941
▁تخلیق	-8.95031
▁از	-8.9508
▁رہنما	-8.95252
▁باوجود	-8.95275
نز	-8.95396
▁مقامات	-8.95532
▁کھیلوں	-8.95596
▁یافتہ	-8.95661
▁مرکوز	-8.95661
مر	-8.95885
▁ڈیم	-8.96218
▁عملی	-8.96286
▁جنسی	-8.96333
▁کافی	-8.96412
▁M	-8.96578
▁میڈیا	-8.96658
▁جواب	-8.96696
le	-8.96718
▁30	-8.9679
شی	-8.96846
با	-8.96868
▁زبانوں	-8.96903
▁ہال	-8.96953
▁ضروری	-8.96979
▁ڈیٹا	-8.96987
▁ملکی	-8.97087
C	-8.97103
er	-8.97124
▁اقوام	-8.97219
▁ٹیوٹ	-8.97352
انی	-8.97396
or	-8.9766
▁مسترد	-8.9781
▁گھریلو	-8.97819
▁بوسٹن	-8.98019
▁اندرونی	-8.98022
▁جیت	-8.98189
▁سرخ	-8.98237
▁اکثریت	-8.98275
▁آن	-8.98369
▁باقی	-8.98558
▁اسٹیٹ	-8.98576
▁°	-8.98612
▁آئیڈل	-8.98656
▁نیچے	-8.98663
▁ریلوے	-8.98802
ra	-8.98817
▁جاپانی	-8.98917
▁می	-8.98925
▁جنگی	-8.98954
es	-8.99177
▁کمپیوٹر	-8.99203
ar	-8.99219
▁پالیسی	-8.99242
r	-8.99331
▁دورہ	-8.99347
شن	-8.99432
▁اطالوی	-8.99486
▁رہنے	-8.99625
▁گئے۔	-8.99754
▁واضح	-8.99804
وٹ	-8.9981
▁زیر	-9.00102
▁طریقوں	-9.00207
▁عدالت	-9.00327
▁امریکن	-9.0041
▁ووٹ	-9.00456
▁وائٹ	-9.00461
▁سامنے	-9.00613
▁پرانے	-9.00928
▁فیلڈ	-9.01001
▁سن	-9.01096
▁آب	-9.01141
سک	-9.01303
▁فعال	-9.01428
▁وابستہ	-9.01633
▁کھانے	-9.01641
▁آباد	-9.01764
▁گورنر	-9.01841
▁ذیلی	-9.01874
▁انسٹی	-9.02124
▁آواز	-9.0218
▁پوسٹ	-9.02254
▁اداروں	-9.0226
▁پل	-9.02284
▁ملی	-9.02332
▁برعکس	-9.02457
▁تنازعہ	-9.02457
▁عائد	-9.02457
▁قوانین	-9.02664
▁مقرر	-9.02788
▁انتہائی	-9.02873
▁مجبور	-9.03079
▁شماری	-9.03286
▁1990	-9.03298
▁الفاظ	-9.03496
us	-9.03558
▁مہم	-9.03571
▁عیسائی	-9.03687
50	-9.03726
▁قتل	-9.03915
▁سیریز	-9.03918
▁رائل	-9.03991
▁فروغ	-9.04125
▁کوڈ	-9.04328
re	-9.04384
سو	-9.04482
L	-9.0464
▁ریڈ	-9.0471
▁ایشن	-9.04753
▁کھو	-9.04803
جس	-9.04894
▁آسٹریلیا	-9.04951
▁لحاظ	-9.0497
▁ہندوستانی	-9.05051
▁رفتار	-9.05185
▁ایسٹونیا	-9.05395
▁بجلی	-9.05395
▁ایسوسی	-9.05396
بل	-9.05407
E	-9.0554
یہ	-9.05572
▁منظور	-9.05578
▁حروف	-9.05608
▁اڈے	-9.05611
▁حل	-9.05641
ط	-9.05741
▁ٹیکس	-9.05872
▁ویئر	-9.0596
▁ہوگئی	-9.06527
▁فائدہ	-9.06681
ch	-9.06873
▁1970	-9.06908
▁24	-9.07289
▁عمارت	-9.07319
▁فارم	-9.07508
▁پوڈ	-9.07525
▁جنس	-9.07563
▁آنے	-9.07665
برگ	-9.07703
▁بولنے	-9.07775
▁سمیت	-9.07999
▁حکم	-9.0813
▁فرق	-9.08136
b	-9.08443
▁ٹاپ	-9.08471
▁I	-9.08562
▁G	-9.0877
▁کریں	-9.08774
▁تنقید	-9.08849
0،000	-9.08853
▁9	-9.08895
la	-9.08919
▁آرڈر	-9.08975
یس	-9.09008
▁حق	-9.09091
▁ولیم	-9.09136
پو	-9.09187
▁ترجمہ	-9.09304
▁پائے	-9.09306
▁2004	-9.09322
▁سمندر	-9.0935
▁نصف	-9.09526
▁ہیوسٹن	-9.09527
گن	-9.09571
▁واشنگٹن	-9.09748
▁سرحد	-9.09806
▁ملکیت	-9.09901
▁ارد	-9.10037
▁کرایا	-9.10327
ریٹ	-9.10379
▁اشرافیہ	-9.10418
▁پارلیمنٹ	-9.10418
▁صارفین	-9.10432
▁مسائل	-9.10643
▁ایسٹ	-9.10817
▁مارشل	-9.10872
▁جلد	-9.10954
an	-9.1108
▁تلاش	-9.11092
▁نشاندہی	-9.11092
▁کیرولائنا	-9.11092
▁پابندی	-9.1124
▁ٹائمز	-9.11257
▁میدان	-9.11402
▁سیل	-9.11546
▁مردوں	-9.11612
▁ناکام	-9.11908
▁ہاور	-9.11911
▁??	-9.11998
▁طریقے	-9.11998
▁سپریم	-9.12014
▁مردم	-9.12075
on	-9.1215
▁شمسی	-9.12231
▁دیئے	-9.12337
O	-9.12575
ڈن	-9.12738
▁گرما	-9.12857
▁وان	-9.12874
▁پوزیشن	-9.12912
▁ایونیو	-9.12918
▁عثمانی	-9.12953
▁کیری	-9.13
▁سیٹ	-9.13091
▁درخواست	-9.13142
▁ممبروں	-9.13224
w	-9.13336
▁ہوئی۔	-9.13392
▁متبادل	-9.13604
▁100	-9.13735
▁ساؤتھمپٹن	-9.13835
▁بندرگاہ	-9.13931
▁حیاتیات	-9.14054
▁لانچ	-9.14067
▁سائز	-9.14139
▁رہائش	-9.14272
▁دہلی	-9.14325
جن	-9.14337
▁ڈو	-9.14342
▁F	-9.14449
▁21	-9.14529
▁مصنوعات	-9.14536
▁ڈگری	-9.14767
▁ڈبلیو	-9.14777
▁پیشہ	-9.14808
▁انکار	-9.1488
▁مشعل	-9.15001
▁گانے	-9.15112
▁علاقائی	-9.15235
▁مقیم	-9.15235
▁قریبی	-9.15331
▁اینٹینا	-9.1535
▁واقعات	-9.15461
▁براعظم	-9.15471
▁آئزن	-9.15472
▁بیونسے	-9.15503
▁کمانڈ	-9.15507
▁ہوئے۔	-9.15573
نڈ	-9.15623
▁ایپل	-9.15757
▁پیدائش	-9.1588
▁ترک	-9.15893
زی	-9.15899
▁سرمایہ	-9.15952
▁کپ	-9.15992
نو	-9.16027
▁بیئر	-9.16271
▁رسوخ	-9.16418
▁جیمز	-9.16441
ئے	-9.16441
▁سپر	-9.16502
▁گرینڈ	-9.16613
▁اسرائیل	-9.16761
▁نمائش	-9.16894
▁ہوگئے	-9.16984
وری	-9.17074
▁باضابطہ	-9.17134
▁آئرلینڈ	-9.17373
▁تحقیق	-9.17491
▁کارکردگی	-9.17614
▁اٹلی	-9.17619
▁بحری	-9.17781
▁والد	-9.18241
▁صنعت	-9.18255
▁نوٹ	-9.18315
▁لہذا	-9.18338
▁ام	-9.18372
▁یہودیوں	-9.18393
▁مقدار	-9.18581
▁انٹرنیٹ	-9.18585
▁معلومات	-9.18612
▁اضافی	-9.18824
▁گرجا	-9.1884
▁نارتھ	-9.19068
▁چھوٹی	-9.19068
▁وار	-9.191
▁ییل	-9.19119
▁سازی	-9.19137
غ	-9.19239
.5	-9.19346
▁جسمانی	-9.19372
▁لائبریری	-9.19558
▁آگے	-9.19623
▁سائنسی	-9.19689
▁بیکٹیریا	-9.19804
▁آسٹریا	-9.19804
▁سخت	-9.19806
▁تعلیمی	-9.19832
▁کور	-9.19883
▁صوتی	-9.19924
▁کوریا	-9.19989
▁P	-9.20015
▁گلی	-9.20033
▁ترتیب	-9.20051
گی	-9.20294
▁حقیقت	-9.20297
▁حوصلہ	-9.20297
▁دماغ	-9.20297
▁بنائے	-9.20313
▁بارش	-9.20395
▁ڈسک	-9.20424
▁اسلامی	-9.2069
▁روشن	-9.20711
▁ایجاد	-9.20795
▁کیے۔	-9.20803
▁چیف	-9.20945
▁زلزلے	-9.21041
▁کرسکتے	-9.21041
▁ووڈ	-9.21087
▁شمار	-9.2129
▁عنوان	-9.21496
▁میڈونا	-9.21541
▁ماہر	-9.21578
▁اسپین	-9.21594
ٹیک	-9.2196
یئر	-9.22292
▁روک	-9.22457
▁وطن	-9.22547
▁منظوری	-9.22582
▁مو	-9.22711
▁آ	-9.23106
▁قیام	-9.23308
▁آئے	-9.23445
▁عیسوی	-9.23563
▁ہوسکتا	-9.23563
▁کمیونٹی	-9.23621
▁گروہوں	-9.23707
20	-9.23723
▁الزام	-9.23775
▁زور	-9.23804
▁تبت	-9.23891
B	-9.24046
▁مسلسل	-9.24076
وف	-9.24101
▁پو	-9.24109
▁گرم	-9.24515
▁H	-9.24534
▁R	-9.24577
▁عروج	-9.2459
▁پرندوں	-9.2459
▁ایکس	-9.24667
▁رات	-9.24676
▁ویل	-9.24702
▁ڈھانچے	-9.24849
▁اسٹیڈیم	-9.24849
▁قذافی	-9.25108
▁سیٹلائٹ	-9.25108
▁سول	-9.25109
▁الیکٹرک	-9.25139
▁میزبانی	-9.25222
▁40	-9.25231
▁ایسا	-9.25556
M	-9.25559
▁پرتگالی	-9.25566
فر	-9.25591
▁شراکت	-9.25628
▁کیمپس	-9.25729
▁دیتی	-9.25742
▁فار	-9.25912
▁تیز	-9.25971
▁گے	-9.26033
▁ٹاؤن	-9.26151
▁پرتگال	-9.26473
▁آرتھوڈوکس	-9.26676
▁ڈیجیٹل	-9.26678
▁پائی	-9.26691
40	-9.26694
▁بڑھتی	-9.26725
▁بیرونی	-9.26769
وز	-9.26878
▁گیم	-9.26936
▁استدلال	-9.2694
▁تیسری	-9.2695
جیسے	-9.27304
P	-9.27426
▁پہنچ	-9.27448
▁ڈیٹرائٹ	-9.2747
ائڈ	-9.27481
▁آرمینیائی	-9.27484
▁1980	-9.27489
▁خانہ	-9.27509
▁پورٹ	-9.27509
▁پڑا	-9.27629
▁پھیل	-9.2772
▁تجربہ	-9.27736
▁پار	-9.27849
▁سات	-9.27894
▁کارروائی	-9.27901
st	-9.27989
▁نانجنگ	-9.28003
▁ایگزیکٹو	-9.2827
▁پولی	-9.28945
▁ڈویژن	-9.28977
N	-9.28993
▁کاموں	-9.28994
▁سوئٹزرلینڈ	-9.29077
▁معاملات	-9.29347
▁لگانے	-9.29374
▁بیماری	-9.29438
ٹری	-9.29495
▁گرین	-9.29495
▁رسائی	-9.29623
▁تیل	-9.29722
▁ممبر	-9.29745
▁بڑھا	-9.29907
▁روایت	-9.29919
ہا	-9.2992
▁کلاس	-9.29944
▁بچے	-9.29954
▁ریکارڈنگ	-9.29959
▁اثرات	-9.30035
▁دس	-9.30136
▁گیس	-9.30138
چر	-9.30145
▁علاج	-9.30162
▁E	-9.3021
▁داری	-9.30297
▁نامزد	-9.30425
▁اوقات	-9.30435
▁ٹائم	-9.30465
▁ہار	-9.30711
▁ہوم	-9.3072
▁فون	-9.30889
ri	-9.30936
▁منتقلی	-9.30972
▁چارلس	-9.30981
اد	-9.30982
▁عنصر	-9.30984
▁زون	-9.31111
▁کتے	-9.31284
▁تانبے	-9.31536
▁ضلع	-9.31536
▁طالب	-9.31536
▁کرسکتا	-9.31536
▁فریڈرک	-9.31536
▁منگ	-9.3156
وب	-9.31561
رن	-9.31664
▁انحصار	-9.31813
مس	-9.31829
▁نشان	-9.31963
▁اگلے	-9.32093
▁آٹھ	-9.32096
▁1960	-9.32105
R	-9.32242
▁ٹور	-9.32394
▁ذاتی	-9.32402
▁بحران	-9.32408
▁دباؤ	-9.32649
اف	-9.32658
▁البرٹ	-9.32669
▁بشمول	-9.32706
▁آگ	-9.3275
▁روڈ	-9.32843
ڈل	-9.32851
▁K	-9.32872
▁اقسام	-9.32929
▁مواصلات	-9.32929
li	-9.33076
is	-9.33435
▁افزائی	-9.33491
▁مرکب	-9.33729
▁ماحولیاتی	-9.33822
▁مرد	-9.33825
▁50	-9.33988
▁یونٹ	-9.33995
▁اطلاع	-9.34057
▁بنائی	-9.34094
▁ایران	-9.341
ڈین	-9.34129
x	-9.34341
▁حالیہ	-9.3435
▁اصلاحات	-9.34388
در	-9.34419
▁پلے	-9.34452
▁پہنچا	-9.34576
▁فلسفہ	-9.34626
▁2003	-9.34646
▁قرض	-9.34754
یڈ	-9.34782
▁گروپوں	-9.34813
▁ہوسکتی	-9.34912
▁نما	-9.34935
▁بری	-9.35232
یز	-9.35268
▁رہائشی	-9.35417
▁سافٹ	-9.35563
لین	-9.35678
▁صومالی	-9.35691
▁سماجی	-9.35774
▁ہدایت	-9.35774
▁دعویٰ	-9.35775
▁پاور	-9.35785
▁کھانا	-9.35792
▁رو	-9.35889
▁سالہ	-9.35976
ونگ	-9.36022
▁حالت	-9.36035
▁اجزاء	-9.36063
▁اظہار	-9.36063
▁اعداد	-9.36063
▁صنف	-9.36063
▁ملتی	-9.36154
-1	-9.36246
▁سربراہ	-9.3635
▁آؤٹ	-9.36353
▁زی	-9.36408
▁بیونسی	-9.36482
▁انٹر	-9.36806
جا	-9.3681
یک	-9.36888
▁شپ	-9.36967
▁فل	-9.37007
نک	-9.37063
▁نائیجیریا	-9.37227
▁میلبورن	-9.37232
80	-9.3748
D	-9.37504
▁الحال	-9.3752
▁رقم	-9.3752
▁فیڈرل	-9.37525
▁سامان	-9.37774
▁قواعد	-9.37815
▁محل	-9.37815
▁بننے	-9.37829
▁موجودگی	-9.3785
ارڈ	-9.37974
▁مشین	-9.38183
▁ملا	-9.38188
.1	-9.38292
▁مال	-9.38371
▁حکمران	-9.38391
▁فراہمی	-9.38394
▁اتفاق	-9.38405
▁توقع	-9.38406
جر	-9.38446
▁ڈال	-9.38676
▁چی	-9.38743
▁ایڈ	-9.38861
▁ماحول	-9.39
▁اچھی	-9.39
▁عدم	-9.39
فورڈ	-9.39012
▁ہلاک	-9.39018
ھ	-9.39164
▁پرست	-9.39269
▁اسمبلی	-9.39298
▁آرمی	-9.39355
ro	-9.39408
▁کاغذ	-9.39553
▁پلائیماؤتھ	-9.39598
▁اپنایا	-9.39606
▁ورزی	-9.39615
▁پروٹسٹنٹ	-9.39879
▁یورینیم	-9.39898
▁ہان	-9.40125
▁حقیقی	-9.40199
▁مظاہرہ	-9.4021
▁میچ	-9.4026
▁دیکھ	-9.40538
▁گو	-9.40548
▁2001	-9.40562
▁شی	-9.40589
▁فارمیٹ	-9.40621
▁کراس	-9.40655
▁لیا۔	-9.40746
ض	-9.40788
▁پیٹنٹ	-9.4083
▁پسندی	-9.40947
▁غلط	-9.4098
▁ہوں	-9.41012
▁رکاوٹ	-9.41108
▁شدید	-9.41108
ویل	-9.41149
▁نظریات	-9.4117
▁کمیٹی	-9.41272
▁بٹ	-9.41292
▁ترمیم	-9.41413
▁ہمیشہ	-9.41719
پس	-9.41736
ام	-9.41751
▁پن	-9.41752
.6	-9.41759
▁ٹیسٹ	-9.41874
▁T	-9.41936
▁کاروبار	-9.4209
انگ	-9.42181
▁جہازوں	-9.42212
▁گئیں۔	-9.42272
▁گانا	-9.42273
.7	-9.42295
▁تارکین	-9.42335
▁1950	-9.42365
▁فین	-9.42368
▁جینیاتی	-9.42377
▁کھولا	-9.42423
▁بشپ	-9.42437
▁مجموعہ	-9.42642
▁چلنے	-9.42654
▁حفاظت	-9.42707
▁اسکاٹ	-9.42959
▁ونڈوز	-9.42978
▁چو	-9.43171
▁خشک	-9.43262
▁کمزور	-9.43285
▁میں۔	-9.4333
▁معمولی	-9.4336
▁23	-9.43453
▁صنعتی	-9.43519
شا	-9.43532
پل	-9.43563
▁مزاحیہ	-9.43574
▁ادارہ	-9.43588
▁اٹلانٹک	-9.43886
▁بچ	-9.44151
▁خاتمے	-9.442
▁طوفان	-9.442
ئ	-9.44409
▁انسانوں	-9.44498
▁روکنے	-9.44563
▁مور	-9.44564
یگ	-9.44664
▁عناصر	-9.4483
▁ملاقات	-9.4483
▁چیک	-9.44871
▁حمل	-9.44939
▁مزاحمت	-9.45002
.4	-9.4504
▁میٹروپولیٹن	-9.45146
▁وجود	-9.45146
▁میگزین	-9.45148
▁لائٹ	-9.45176
لینڈ	-9.45199
▁شیل	-9.45294
30	-9.45439
▁ویب	-9.45453
▁آڈیو	-9.45464
▁شاید	-9.45464
▁میامی	-9.45472
ہن	-9.45567
▁موٹر	-9.45638
v	-9.45644
▁بھیجا	-9.4572
▁مارک	-9.45761
▁برونکس	-9.45793
کھ	-9.45998
.2	-9.46053
▁تصویر	-9.46101
▁تربیت	-9.46105
▁ٹکسن	-9.46107
ولا	-9.46129
شین	-9.46313
▁شہریوں	-9.46326
▁بینک	-9.46334
▁تعین	-9.46405
▁ٹینیسی	-9.46423
▁پتھر	-9.46424
▁رکھتی	-9.46436
لز	-9.46576
▁دفتر	-9.46744
▁موثر	-9.46744
▁نتائج	-9.46744
▁N	-9.46786
▁مریم	-9.46795
سر	-9.47066
▁کنسرٹ	-9.47066
▁زنک	-9.47095
▁مصری	-9.47098
▁پین	-9.47132
▁رینج	-9.47138
▁مصنف	-9.47346
▁شکاری	-9.4737
▁برک	-9.47373
▁اقتدار	-9.4739
▁تعاون	-9.4739
▁کنگ	-9.47553
▁سنگل	-9.47567
▁خیالات	-9.47582
انو	-9.47593
▁انیسویں	-9.47714
▁بلکہ	-9.47715
▁جذبات	-9.47719
▁اونچائی	-9.47723
▁ہوگئے۔	-9.47918
▁رکن	-9.47989
▁بلیک	-9.48097
▁بناتا	-9.48123
▁دعوی	-9.48365
▁امن	-9.48393
▁کپاس	-9.48405
it	-9.48468
▁ہارڈ	-9.48591
▁عمارتوں	-9.48594
دا	-9.48631
▁پھانسی	-9.48695
.3	-9.48702
▁ملازمت	-9.48714
th	-9.48755
▁سرما	-9.48783
at	-9.48825
▁میئر	-9.48912
لیٹ	-9.48917
ئر	-9.48939
▁امریکیوں	-9.49006
▁منصوبے	-9.49024
▁پیچیدہ	-9.49024
▁لہر	-9.49039
یکس	-9.49047
14	-9.49117
▁جزوی	-9.49184
▁جیسی	-9.49306
▁غلبہ	-9.49354
زا	-9.49386
▁پہاڑی	-9.49489
▁تحفظ	-9.49552
یر	-9.49615
▁چیت	-9.49667
▁سوسائٹی	-9.49685
▁علیحدگی	-9.49685
▁ٹکنالوجی	-9.49685
ٹنگ	-9.49702
اٹ	-9.49717
▁خ	-9.49744
▁فنکاروں	-9.49801
▁پوری	-9.49827
▁اخبار	-9.49886
▁فضائی	-9.49935
نر	-9.49959
▁الزبتھ	-9.50017
▁شرکت	-9.50017
▁ہٹ	-9.50026
▁وال	-9.50047
▁دولت	-9.5005
▁ڈیاگو	-9.50085
دار	-9.502
▁نوجوان	-9.50316
▁احتجاج	-9.5035
▁سیئٹل	-9.5035
▁ہوسکتے	-9.5035
▁یونیورسل	-9.5035
▁رہتا	-9.50374
▁پولینڈ	-9.50379
▁جانور	-9.50511
▁رجحان	-9.5052
▁اہمیت	-9.50584
▁اسٹ	-9.50599
▁B	-9.50677
▁لوئس	-9.50697
▁دریائے	-9.50704
▁آلہ	-9.50739
از	-9.50746
▁اسٹور	-9.50795
▁دوم	-9.50862
لن	-9.51001
▁مشکل	-9.51021
▁معاشرے	-9.51021
▁رابرٹ	-9.51023
▁حالات	-9.51059
ur	-9.51197
▁متن	-9.51225
ne	-9.51262
▁با	-9.51322
▁نگرانی	-9.51357
▁سورج	-9.51382
ٹم	-9.51437
▁چاہئے۔	-9.51643
▁گوئی	-9.51722
▁ہنری	-9.51763
▁مخالف	-9.51921
▁گاہ	-9.51921
▁ہوگئی۔	-9.5193
▁بادشاہی	-9.5194
▁مالک	-9.51976
▁جذب	-9.51982
▁فیسٹیول	-9.52034
▁برف	-9.52038
▁بڑھانے	-9.52097
▁28	-9.52147
ta	-9.522
▁26	-9.52319
▁فہرست	-9.52374
▁لیبیا	-9.52415
200	-9.52477
گل	-9.52616
▁بم	-9.5268
▁ڈائی	-9.52697
▁مقدس	-9.52715
▁ادارے	-9.52716
▁رشتہ	-9.52716
▁ایڈورڈ	-9.5272
▁رد	-9.52723
▁دلچسپی	-9.52734
▁بناتے	-9.52769
▁پیروی	-9.52778
▁پاپ	-9.52795
وین	-9.52803
▁والدہ	-9.52837
▁کیریئر	-9.52877
▁سوچ	-9.52955
▁الاسکا	-9.53058
▁ٹریک	-9.53065
انے	-9.53081
▁2002	-9.53094
اتی	-9.53242
.9	-9.53314
▁جاسکتی	-9.53402
▁کاتالان	-9.53402
▁قبرص	-9.5349
▁چنگ	-9.53558
▁آپریشن	-9.53702
▁سبز	-9.53745
▁مینڈولین	-9.53746
▁لمبائی	-9.53754
▁طے	-9.53757
▁لاگو	-9.53811
▁اولمپک	-9.53894
▁لکھی	-9.53923
▁ہل	-9.53979
▁انٹرنیشنل	-9.54092
▁مستحکم	-9.54092
▁ڈائریکٹر	-9.54092
▁سرگرمی	-9.54109
▁کینے	-9.5411
▁بحالی	-9.54287
▁موضوع	-9.54297
ائٹ	-9.54366
▁پریمیئر	-9.5444
▁تصدیق	-9.54788
▁اڈہ	-9.54788
▁پبلک	-9.54794
▁دل	-9.54818
▁حملوں	-9.54845
▁ادب	-9.54898
لون	-9.54939
18	-9.54962
▁(18	-9.54971
▁بحر	-9.55063
▁اصول	-9.5512
▁آرمینیا	-9.55125
▁ذرائع	-9.55138
▁پب	-9.55243
▁پلیٹ	-9.55295
▁راستے	-9.55306
64	-9.55434
▁22	-9.55476
▁غالب	-9.55489
انہ	-9.5551
▁مند	-9.55534
▁پورا	-9.55574
▁فوٹو	-9.55585
▁گے۔	-9.5569
▁خط	-9.55761
▁ایسی	-9.5583
▁اشاعت	-9.55841
▁مثبت	-9.55841
▁شیشے	-9.55841
▁III	-9.55852
T	-9.55896
▁تھامس	-9.56125
▁باعث	-9.56194
▁بھاری	-9.56198
▁کردی	-9.562
▁چند	-9.56214
▁لایا	-9.56252
▁کمیشن	-9.56268
▁تاج	-9.5628
▁ترجیح	-9.56304
▁نیز	-9.56332
▁چلا	-9.56565
▁عوام	-9.56569
ائن	-9.56667
نج	-9.5686
▁مسئلہ	-9.56905
▁انفرادی	-9.56911
▁ماہرین	-9.56981
▁ملتا	-9.57054
▁متعلقہ	-9.57098
▁وقف	-9.57188
▁60	-9.57227
▁ڈارون	-9.57263
ؤں	-9.57273
▁کاپی	-9.57315
▁بانی	-9.57336
▁انتظامیہ	-9.5734
▁حکمت	-9.57376
آ	-9.57408
▁لیبل	-9.57535
▁موزیک	-9.5761
▁مسلح	-9.5762
▁مشن	-9.57623
▁پریس	-9.57674
▁ہائیک	-9.57786
▁بارسلونا	-9.5798
▁پیمائش	-9.5798
▁کارپوریشن	-9.5798
وڈ	-9.58049
ڈس	-9.58088
▁چیمپئن	-9.58142
▁شام	-9.58219
um	-9.58224
▁علامت	-9.58256
▁مطالبہ	-9.58341
▁درد	-9.58348
▁یورو	-9.58371
65	-9.58378
وان	-9.58565
▁امکان	-9.58582
▁اسکور	-9.58584
▁واقعہ	-9.58627
▁ایشیاء	-9.58705
▁نشریات	-9.58705
▁فوری	-9.58819
▁پول	-9.5882
34	-9.58932
▁وو	-9.58968
▁کمانڈر	-9.59016
▁صوبے	-9.59067
▁معاصر	-9.59067
▁یونیورسٹیوں	-9.59165
▁انچ	-9.59236
32	-9.5929
▁عارضی	-9.59432
▁منحصر	-9.59432
▁منظر	-9.59432
▁ڈیپارٹمنٹ	-9.59432
▁ہائیڈروجن	-9.59437
▁سزا	-9.59441
▁چارٹر	-9.59506
ارا	-9.59712
▁ہتھیار	-9.59797
▁کثیر	-9.59798
▁سگنل	-9.59798
▁نشر	-9.59803
▁کالونی	-9.59815
▁ہوٹل	-9.59845
▁ایوارڈ	-9.59973
▁آسان	-9.60028
▁تکنیکی	-9.60144
▁یقین	-9.60198
▁بالغ	-9.60226
▁برن	-9.60421
-19	-9.60488
▁چونکہ	-9.60535
▁تیسرا	-9.60542
▁سمت	-9.60604
او	-9.60632
F	-9.60661
▁ہٹا	-9.60712
▁تخمینہ	-9.60905
▁یسوع	-9.60905
▁آرسنل	-9.60905
▁نسبتا	-9.60931
ic	-9.6101
▁ریلیز	-9.61015
▁درمیانی	-9.61191
▁اضافے	-9.61277
▁اعزاز	-9.61277
▁بحیرہ	-9.61277
▁غور	-9.61281
▁ایشیائی	-9.61289
▁حدود	-9.61293
▁ریلے	-9.61357
▁ریپبلکن	-9.61409
ٹل	-9.61453
▁اندازہ	-9.61511
▁وہاں	-9.61636
▁خطرے	-9.6165
▁کتوں	-9.6165
▁شراب	-9.61651
مان	-9.6171
el	-9.61752
▁سم	-9.61804
▁کمپنیوں	-9.61806
اری	-9.61847
منٹ	-9.61859
▁ریکارڈز	-9.61867
ئن	-9.61981
▁خواہش	-9.62024
▁رچمنڈ	-9.62024
▁فلوریڈا	-9.62024
▁شکاگو	-9.62025
▁مخالفت	-9.62102
▁ایسے	-9.62264
▁پذیر	-9.624
▁وادی	-9.62436
▁ما	-9.62458
کار	-9.62533
▁خارج	-9.62695
▁ماخوذ	-9.62778
▁پچھلے	-9.62778
▁عکاسی	-9.62814
▁ممبران	-9.62845
▁یاد	-9.62861
78	-9.63053
▁غلاموں	-9.63097
▁حیدرآباد	-9.63157
▁عقیدے	-9.63157
▁ماسٹر	-9.63328
.0	-9.63419
▁اشارہ	-9.63537
▁پولش	-9.63597
ٹک	-9.63741
ia	-9.63772
▁باشندوں	-9.63918
▁حتمی	-9.63918
▁گنی	-9.63928
▁برما	-9.6394
زو	-9.63973
▁جاسکے۔	-9.6403
ٹیل	-9.64081
▁زبانیں	-9.64224
▁بس	-9.64233
▁آئرش	-9.64302
▁شعبے	-9.64302
▁معنی	-9.64302
▁لبرل	-9.64302
▁برابر	-9.6431
▁حیاتیاتی	-9.64323
▁ور	-9.64395
▁لنک	-9.64453
▁آئینی	-9.64579
▁ماہ	-9.64708
▁(2	-9.64716
▁شکلوں	-9.64801
▁وین	-9.64916
os	-9.64993
▁زمینی	-9.65014
▁احاطہ	-9.65072
▁ادویات	-9.65072
▁دوسروں	-9.65073
ڈک	-9.65115
as	-9.65135
▁ٹری	-9.65147
99	-9.65193
▁انسان	-9.65218
▁تبدیلیوں	-9.65275
▁پیٹر	-9.65282
▁فو	-9.65352
▁سائیکل	-9.65366
▁ضم	-9.65427
▁گارڈ	-9.65432
▁مخفف	-9.6546
▁آٹھویں	-9.6546
▁تخت	-9.6546
95	-9.65606
اور	-9.65653
▁حال	-9.65736
▁قرآن	-9.65849
▁موازنہ	-9.65849
▁گھنٹے	-9.65849
▁1940	-9.65881
▁کانفرنس	-9.66143
▁بعض	-9.6624
▁پروجیکٹ	-9.6624
▁خراب	-9.66412
مب	-9.66412
چا	-9.66728
▁خیالی	-9.66735
▁فائنل	-9.66999
▁مرحلے	-9.67026
▁ہزار	-9.67052
te	-9.67299
▁شاخ	-9.67373
الی	-9.67409
▁محمد	-9.67421
▁معاہدوں	-9.67421
▁کنونشن	-9.67421
▁جھیل	-9.67422
▁ہتھیاروں	-9.67422
▁قبائل	-9.67486
زر	-9.67496
▁کھیلا	-9.67506
▁دان	-9.67595
▁سنبھال	-9.67657
▁تیسرے	-9.67818
▁نیپچون	-9.67818
▁ہسپتال	-9.67818
▁اقدامات	-9.67841
25	-9.67937
▁آرٹسٹ	-9.67989
فا	-9.68016
لے	-9.68089
17	-9.68144
73	-9.68155
▁بحث	-9.68216
▁محسوس	-9.68216
▁ریس	-9.68355
▁آفس	-9.68403
▁پہاڑوں	-9.68427
لس	-9.68431
ہی	-9.68549
ریا	-9.68592
▁بردار	-9.68619
▁طرز	-9.6862
مک	-9.68774
ایک	-9.68777
▁80	-9.689
▁فائر	-9.68924
▁سنسکرت	-9.68936
▁(1	-9.69
▁اکیڈمی	-9.69018
▁تقریر	-9.69018
▁ثبوت	-9.69018
▁ایجنسی	-9.69052
▁لیبر	-9.6906
▁27	-9.69173
▁ہیلینا	-9.69458
▁کش	-9.6948
▁واٹر	-9.69519
یکل	-9.69676
لیس	-9.6977
▁چلانے	-9.69873
▁برازیل	-9.70177
▁اشیاء	-9.70232
▁تجزیہ	-9.70232
▁فاصلے	-9.70232
▁ہیڈکوارٹر	-9.70232
▁رائٹ	-9.70271
یٹ	-9.70287
وو	-9.70356
--	-9.70425
85	-9.70493
لر	-9.70497
▁ممکن	-9.70558
▁مسلم	-9.70592
▁تناسب	-9.7064
▁مناسب	-9.7064
▁پرندے	-9.7064
▁بیٹے	-9.70646
▁گی۔	-9.70705
▁کاروباری	-9.70965
▁فریم	-9.71007
▁چھوٹا	-9.7105
ni	-9.71063
▁کمیونسٹ	-9.71092
ti	-9.71384
▁یقینی	-9.71426
▁ہوگا	-9.71457
▁جزیروں	-9.71462
▁جغرافیائی	-9.71462
▁مداخلت	-9.71462
رہ	-9.71517
H	-9.71552
▁V	-9.71783
▁خریدا	-9.7182
▁زرعی	-9.71875
▁فیصلے	-9.71875
▁جوہری	-9.71879
▁سلوک	-9.71883
لٹ	-9.72119
ائز	-9.7228
ā	-9.7229
▁زراعت	-9.7229
▁مضامین	-9.7229
▁منافع	-9.7229
ونی	-9.72426
10	-9.72571
▁جانچ	-9.72604
▁تیاری	-9.72665
▁لباس	-9.72707
▁رویے	-9.72707
▁اسٹار	-9.72754
▁اسلام	-9.72769
▁بک	-9.72799
▁وائی	-9.72804
▁90	-9.72808
▁ہیم	-9.7282
▁عیسائیت	-9.72846
لڈ	-9.72876
▁ٹیکنالوجی	-9.72926
56	-9.72927
▁جم	-9.73059
▁سلسلے	-9.73125
▁شوارزنیگر	-9.73125
▁صحرا	-9.73125
▁بائبل	-9.73129
▁1991	-9.73145
▁دکھایا	-9.73152
پٹ	-9.73234
▁لارڈ	-9.73375
رون	-9.73387
12	-9.73499
▁سیکیورٹی	-9.73545
▁پانچویں	-9.73545
▁صومالیہ	-9.73666
▁مٹی	-9.73862
60	-9.73865
نیل	-9.73876
33	-9.73886
ولوجی	-9.73942
▁باقاعدہ	-9.73967
▁ذخیرہ	-9.73967
▁وزارت	-9.73967
▁اختلافات	-9.73981
▁خون	-9.74036
▁فر	-9.74105
ہر	-9.74166
▁تقریب	-9.74225
▁ٹاور	-9.74228
▁ساؤتھ	-9.74391
▁1930	-9.7442
▁D	-9.74488
لنگ	-9.74553
▁گن	-9.74559
▁فلپ	-9.74623
▁پٹ	-9.74643
▁de	-9.74715
▁لقب	-9.74816
▁میڈیکل	-9.74822
ینٹ	-9.74851
J	-9.74867
سکی	-9.74959
▁پنک	-9.75017
▁دیکھی	-9.75122
▁ارکان	-9.75244
▁نائٹ	-9.7535
▁مون	-9.75352
▁خاندانوں	-9.75455
▁تبتی	-9.75553
ئس	-9.75574
▁ٹرین	-9.75626
▁تبادلہ	-9.75673
▁مساوی	-9.75673
▁صدارتی	-9.75827
68	-9.75926
▁لائسنس	-9.76007
▁ہوگیا	-9.76037
▁لاس	-9.76081
X	-9.76104
▁سلسلہ	-9.76104
▁سوئس	-9.76124
▁سروے	-9.76129
▁لکھے	-9.76137
▁جینوم	-9.76148
▁ڈاکٹر	-9.762
U	-9.76229
G	-9.76286
▁پڑتا	-9.76467
▁متحرک	-9.76537
▁بشریات	-9.76537
▁رہا۔	-9.76632
▁بحال	-9.76728
▁گریٹ	-9.76776
38	-9.76797
▁بہن	-9.76875
▁کوششوں	-9.76907
▁گیل	-9.76935
▁سونے	-9.77139
▁O	-9.77152
لک	-9.77193
▁غلام	-9.77234
▁آرٹس	-9.77237
ود	-9.77384
▁تحلیل	-9.77408
▁محکمہ	-9.77408
▁وجوہات	-9.77408
▁پرواز	-9.77428
▁واپسی	-9.77444
▁پری	-9.77568
▁اسپیلبرگ	-9.77847
▁رچرڈ	-9.77847
▁شہزادہ	-9.77847
▁طبقے	-9.77847
▁مختار	-9.77847
▁خطرہ	-9.77854
▁مصروف	-9.77872
▁نیوز	-9.77872
▁فورسز	-9.77898
▁سلاو	-9.77934
90	-9.77972
▁70	-9.78017
یکا	-9.78045
91	-9.7809
▁انڈیا	-9.78151
▁ہفتہ	-9.78287
▁ریزرو	-9.78288
59	-9.78351
to	-9.78467
▁ساز	-9.78539
▁U	-9.78543
▁عورت	-9.7873
▁منصوبوں	-9.7873
▁کیلنڈر	-9.78731
▁یادگار	-9.78733
▁امیر	-9.78796
▁35	-9.78905
▁درج	-9.78911
▁لگا	-9.7896
بن	-9.79007
وپ	-9.79036
▁تشریح	-9.79174
▁حرکت	-9.79174
▁31	-9.79175
▁ورانہ	-9.79187
پور	-9.79208
▁باکس	-9.79219
▁نشانہ	-9.79307
▁کان	-9.79367
▁تحقیقات	-9.79396
▁نوآبادیاتی	-9.79422
▁پڑوس	-9.79455
▁ترکی	-9.79468
▁ڈے	-9.79511
▁مہینے	-9.79621
▁1997	-9.79635
▁اٹھایا	-9.79656
▁والدین	-9.79704
ng	-9.79862
▁ایبی	-9.79956
▁مہارت	-9.80069
▁وسائل	-9.80072
▁بھال	-9.80088
▁مالیاتی	-9.80091
▁لیزر	-9.80126
▁گول	-9.80201
▁صدیوں	-9.80237
▁لفٹ	-9.80419
▁ڈین	-9.80476
▁جرائم	-9.8052
▁خالص	-9.8052
▁مستقبل	-9.8052
▁لاگت	-9.8052
▁ایڈیشن	-9.80555
▁آتا	-9.80596
70	-9.80732
برٹ	-9.80743
▁ممتاز	-9.80972
▁پروڈیوسر	-9.80972
▁روٹ	-9.81004
▁مصنفین	-9.81033
▁جیتنے	-9.81061
ha	-9.81098
▁کشی	-9.81169
ائل	-9.81285
▁اپیل	-9.81393
▁والنسیا	-9.81427
▁پناہ	-9.81432
▁الپس	-9.81465
▁کہانی	-9.81509
ھی	-9.81616
▁ایوارڈز	-9.81673
سلی	-9.81852
▁ہزاروں	-9.81853
▁کہتے	-9.81895
▁لاج	-9.81944
▁اسپ	-9.81956
▁انعام	-9.81974
un	-9.81987
▁آہنگی	-9.82109
▁ایٹ	-9.82123
یسی	-9.8226
▁پرو	-9.82339
▁انٹارکٹیکا	-9.82342
▁عطیہ	-9.82342
▁روزانہ	-9.82348
▁اخراجات	-9.82371
▁پھیلاؤ	-9.82372
88	-9.82742
▁برقی	-9.82803
▁مشاہدہ	-9.82803
▁اپولو	-9.82811
▁بنے	-9.82835
▁جنگوں	-9.82899
▁لوک	-9.82923
▁ٹن	-9.82928
▁پلانٹ	-9.82989
یون	-9.83128
▁دہ	-9.83176
▁متحد	-9.83183
▁فاتح	-9.83222
▁ٹرانس	-9.83247
▁ارتقاء	-9.83266
▁تعدد	-9.83266
▁عقائد	-9.83266
▁مساوات	-9.83266
▁کیتھیڈرل	-9.83266
▁شیئر	-9.83288
▁خانے	-9.83329
▁پہلو	-9.83331
▁پہنچنے	-9.83333
48	-9.83356
▁کارل	-9.83394
na	-9.83415
▁دھ	-9.83453
▁ڈیوڈ	-9.83455
نین	-9.83468
▁دوست	-9.8352
زن	-9.83573
▁اتحادی	-9.83581
58	-9.83652
ol	-9.83664
▁مطالعے	-9.83731
▁مشق	-9.83731
▁رائے	-9.83777
▁تکنیک	-9.83859
مون	-9.84012
▁میٹرو	-9.8403
▁انسانیت	-9.84074
▁قابو	-9.84198
▁کثرت	-9.84198
▁نمودار	-9.84201
V	-9.84269
▁اسٹون	-9.84289
▁نامی	-9.84294
▁ہندو	-9.84364
یکٹ	-9.84382
▁لیون	-9.8448
سٹی	-9.84532
▁وصول	-9.84668
▁زوال	-9.84671
▁1920	-9.84707
▁چارلسٹن	-9.84709
▁دائرہ	-9.8472
▁خارجہ	-9.84771
تر	-9.8478
▁عربی	-9.84973
▁سست	-9.84987
ڈون	-9.85051
▁منسوخ	-9.85139
▁پودے	-9.85139
▁لیڈ	-9.85154
▁افسران	-9.85165
▁500	-9.85186
▁درجے	-9.85218
92	-9.85322
▁ناکامی	-9.85333
▁نوآبادیات	-9.8535
▁نیومن	-9.85435
▁W	-9.85451
▁ادبی	-9.85475
▁بادشاہت	-9.85482
▁ساتھ۔	-9.85496
▁چینل	-9.85547
▁پرانی	-9.8555
79	-9.85606
▁اریٹیریا	-9.85613
▁ثابت	-9.85613
▁پاؤنڈ	-9.85613
▁بیسویں	-9.85614
▁1998	-9.85633
▁1999	-9.85639
▁آسٹریلیائی	-9.85655
▁بلڈنگ	-9.85657
▁ویسٹرن	-9.85661
ٹز	-9.85724
▁خفیہ	-9.8609
▁نظم	-9.8609
▁ٹرمینل	-9.8609
▁سینڈ	-9.86212
▁دیہی	-9.86233
▁کاروں	-9.86246
13	-9.86274
▁راستہ	-9.86344
▁برمودا	-9.86568
▁لمبی	-9.86568
▁چاہتا	-9.86568
▁تعینات	-9.86594
▁ڈالا	-9.86625
▁بدعنوانی	-9.86628
▁انجینئرنگ	-9.86631
▁مثالیں	-9.86658
▁برادری	-9.86679
مپ	-9.86805
روں	-9.86903
▁کھلاڑیوں	-9.86935
▁لیس	-9.87018
▁چاہتے	-9.87049
▁سڑک	-9.87084
▁دیکھنے	-9.8711
▁کھلاڑی	-9.87163
▁چوٹی	-9.87227
nd	-9.87256
▁جیک	-9.87313
▁ایوان	-9.87318
▁تنظیموں	-9.87318
▁پرستی	-9.87458
▁مندر	-9.87504
ذ	-9.87521
▁معروف	-9.87532
▁اسکوائر	-9.87532
▁وولٹیج	-9.87533
▁تجدید	-9.87534
▁1989	-9.87551
▁ایپلی	-9.87588
▁بانڈ	-9.87591
▁ڈرائیو	-9.87796
ma	-9.87877
▁کینن	-9.87896
▁کیں۔	-9.87925
▁یوٹیوب	-9.88017
▁طاقتوں	-9.88022
▁بلب	-9.88039
▁گریڈ	-9.88048
▁ناول	-9.88049
▁جائزہ	-9.88053
▁درخت	-9.88136
▁امداد	-9.88261
▁تہذیب	-9.88505
▁نرم	-9.88706
▁رسم	-9.88801
اج	-9.88868
▁بولیوں	-9.88894
▁سرد	-9.88928
75	-9.88943
▁درست	-9.88985
▁امپیریل	-9.88995
▁تسلسل	-9.88995
▁شمولیت	-9.88995
▁پروفیسر	-9.88995
▁ہفتے	-9.88995
▁منفی	-9.89001
▁روح	-9.89042
55	-9.89073
▁تعمیراتی	-9.89083
ریس	-9.89097
▁اختیارات	-9.89152
▁ریل	-9.89262
▁ماہی	-9.89318
▁مارا	-9.89395
▁اجلاس	-9.89488
▁کثافت	-9.89488
ینز	-9.89527
▁گرمی	-9.89539
کٹ	-9.89699
یئس	-9.89727
▁پوائنٹ	-9.89785
▁میڈ	-9.89823
▁سینیٹ	-9.8997
▁صورت	-9.89983
▁ناقابل	-9.89983
▁ٹریفک	-9.89983
▁کیمیائی	-9.89987
ce	-9.90004
▁عہدے	-9.90021
نیا	-9.90108
▁بورو	-9.90117
گھ	-9.90143
دو	-9.90436
▁اعتماد	-9.9048
▁باہمی	-9.9048
▁سہولت	-9.9048
▁شعبوں	-9.9048
▁ملوث	-9.9048
▁بہار	-9.90483
▁پرائمری	-9.90502
▁رومی	-9.90511
▁بلیو	-9.90553
روس	-9.90575
▁تہوار	-9.90611
86	-9.90841
▁ریاضی	-9.90973
▁کریڈٹ	-9.90981
▁پوپر	-9.90984
▁پک	-9.90989
▁تابکاری	-9.91
▁ہاتھ	-9.91119
▁عملے	-9.91133
▁ساخت	-9.91242
▁جزو	-9.91248
▁بش	-9.91321
▁لائنوں	-9.91411
45	-9.91418
شر	-9.91459
لہ	-9.91477
▁ڈسٹرکٹ	-9.91483
▁سیچوان	-9.91483
se	-9.91499
▁جیتا	-9.91503
ٹیو	-9.91628
-2	-9.91647
▁جج	-9.91689
▁انقلابی	-9.91755
▁سربراہی	-9.91907
▁آمد	-9.91953
▁الیگزینڈر	-9.91988
▁چیلنج	-9.91988
▁فاؤنڈیشن	-9.91994
▁انگریزوں	-9.92049
▁جنم	-9.92068
▁ماس	-9.92075
▁پروشین	-9.92095
▁فلموں	-9.9229
▁180	-9.92316
▁نکال	-9.92347
▁نور	-9.92366
▁نوٹری	-9.92433
اپ	-9.9245
▁روایات	-9.92496
▁کیلیفورنیا	-9.92496
▁گوتھک	-9.92496
▁کنارے	-9.92496
▁مفت	-9.92507
▁ٹیٹو	-9.92577
ینڈ	-9.92582
▁وزن	-9.92626
▁دشمن	-9.92678
▁عمارتیں	-9.9268
ای	-9.92702
▁سونی	-9.92823
▁جاسکے	-9.92856
▁احساس	-9.93006
▁تنوع	-9.93006
▁علیحدہ	-9.93006
▁پریسبیٹیرین	-9.93006
▁ڈیفنس	-9.93006
▁کنسول	-9.93007
▁دیوتاؤں	-9.93011
▁بھائی	-9.93178
▁الٹ	-9.9326
▁رسمی	-9.93267
▁ایونٹ	-9.93314
▁لین	-9.9345
ter	-9.9347
▁کہنا	-9.93496
▁موقع	-9.93519
▁دینا	-9.93566
فیل	-9.93594
▁پرفارم	-9.93603
▁فارسی	-9.93614
36	-9.93661
▁دھات	-9.93685
مور	-9.93701
▁ٹریڈ	-9.9371
مز	-9.93839
▁سلاوی	-9.9391
▁نیوزی	-9.93974
ing	-9.9398
▁200	-9.93989
▁انضمام	-9.94034
▁نوعیت	-9.94034
▁بدلے	-9.94097
▁فورٹ	-9.9412
▁لوڈ	-9.94254
واں	-9.94276
گرام	-9.94308
▁اقلیتی	-9.94361
ڈور	-9.94549
▁جائیداد	-9.94552
▁ساتویں	-9.94552
▁کارنیول	-9.94553
▁بوجھ	-9.94569
▁مصنوعی	-9.94585
بیری	-9.94651
▁ٹیموں	-9.94657
▁جوزف	-9.94746
▁غلطی	-9.94771
▁تباہی	-9.94783
▁دیوار	-9.94785
▁پیٹ	-9.94893
22	-9.94895
▁اسٹاف	-9.94927
▁نظریاتی	-9.94969
▁ایرانی	-9.95046
▁بااثر	-9.95073
▁بجٹ	-9.95073
▁تجربے	-9.95073
▁تفویض	-9.95073
▁زمانے	-9.95076
▁وارسا	-9.95103
▁بڑھتے	-9.9515
▁ہپ	-9.95151
▁دورے	-9.95205
▁چھٹی	-9.95219
▁سیکشن	-9.95287
▁پینٹ	-9.95353
ed	-9.95367
▁45	-9.95373
▁کانگو	-9.95395
▁پروگراموں	-9.95503
▁پیسیفک	-9.95597
▁ہنگری	-9.95597
▁قوت	-9.95598
no	-9.95611
▁پانے	-9.9562
▁بحریہ	-9.95796
▁29	-9.95843
39	-9.96114
▁فلاڈیلفیا	-9.96123
Y	-9.96123
▁لکھنے	-9.96144
ٹھ	-9.96161
▁سرگرمیوں	-9.96162
بہ	-9.96209
▁فائل	-9.96289
▁پھل	-9.96314
▁مونٹی	-9.96416
▁اسٹوڈیو	-9.96453
vi	-9.96516
98	-9.96582
ca	-9.96591
▁شکلیں	-9.96609
▁استعفیٰ	-9.96652
▁انفیکشن	-9.96652
▁بازنطینی	-9.96652
▁شہزادی	-9.96652
▁مسئلے	-9.96652
▁مطالعات	-9.96652
▁کپڑے	-9.96652
▁سیاست	-9.96653
امی	-9.96709
j	-9.96763
▁آپریشنز	-9.96959
این	-9.96972
برا	-9.97128
▁خاتمہ	-9.97184
▁لازمی	-9.97185
▁اوپیرا	-9.97186
ینی	-9.97333
▁سادہ	-9.97341
▁مارول	-9.97366
▁میٹ	-9.97516
نیٹ	-9.97598
▁الہیات	-9.97663
▁اتحادیوں	-9.97665
si	-9.97682
▁ورجینیا	-9.97719
▁II	-9.97749
▁پادری	-9.97887
▁دستاویز	-9.97968
ul	-9.98045
▁پرنٹ	-9.98155
ایا	-9.98211
▁جنگلی	-9.98251
▁رضامندی	-9.98256
▁خرچ	-9.98257
▁VI	-9.98263
▁دیں	-9.98286
▁انتظامی	-9.98349
▁کیمپ	-9.98365
▁اوور	-9.98452
1,	-9.98533
▁منٹ	-9.98582
▁ثقافتوں	-9.98609
69	-9.98674
جھ	-9.98684
▁بادشاہوں	-9.98686
▁بالترتیب	-9.98797
▁فطرت	-9.98797
▁ہدف	-9.98797
▁ریسرچ	-9.98797
▁نسلوں	-9.98807
▁رہنماؤں	-9.98816
▁کینیڈین	-9.98846
▁ٹیکساس	-9.98866
رل	-9.98995
▁طاقتور	-9.98995
▁مطابقت	-9.99003
▁لئے۔	-9.99114
▁میری	-9.99186
▁پھیلا	-9.99261
یور	-9.99292
▁حساب	-9.9934
▁مخلوط	-9.9934
▁سیکرٹری	-9.99341
▁اونچی	-9.99341
▁آٹو	-9.99408
▁خودمختاری	-9.99422
▁طبی	-9.99483
▁گرفتار	-9.99533
▁بیونس	-9.99572
▁مسافروں	-9.99606
▁تحریری	-9.9969
مل	-9.99706
89	-9.99736
▁اصطلاحات	-9.99743
id	-9.99821
▁رومیوں	-9.99832
▁شواہد	-9.99887
▁نظرانداز	-9.99887
▁نورفولک	-9.99887
▁کرسکتی	-9.99887
▁امید	-9.99897
▁کاربن	-9.99937
▁روز	-9.99977
29	-9.99992
▁کلی	-10.0004
▁کیبل	-10.0012
▁فرانسیسیوں	-10.0014
▁گولی	-10.0018
▁پروڈکشن	-10.0024
46	-10.0025
▁ماؤنٹ	-10.0037
27	-10.0037
▁درآمد	-10.0044
▁قبضے	-10.0044
▁پروٹین	-10.0046
▁لگتا	-10.0048
▁باس	-10.0052
▁فیشن	-10.0056
▁معیارات	-10.0059
▁پرنس	-10.0064
▁a	-10.0074
▁میزبان	-10.0075
شو	-10.0084
دہ	-10.0091
▁زائرین	-10.0099
▁نچلے	-10.0099
▁پاکستان	-10.0099
یف	-10.0103
رم	-10.0129
▁فنڈ	-10.0133
62	-10.0143
▁ہوئیں	-10.0147
53	-10.0154
▁تقرری	-10.0154
▁ردعمل	-10.0154
▁صحیح	-10.0154
▁صورتحال	-10.0154
▁نائب	-10.0154
▁یہوواہ	-10.0154
▁لیک	-10.0155
ائزیشن	-10.0157
▁شخصیت	-10.0162
▁مقبولیت	-10.0163
▁عہدیداروں	-10.0177
▁بہتری	-10.0185
▁کلبوں	-10.0198
▁باشندے	-10.021
▁وراثت	-10.021
▁محبت	-10.0211
▁ڈیوک	-10.0213
▁دستاویزات	-10.0215
یری	-10.0216
▁بیجنگ	-10.0219
▁ڈائ	-10.0233
▁بیٹی	-10.0256
▁ذخائر	-10.0266
▁عرفی	-10.0266
▁نصوص	-10.0266
▁ہفتوں	-10.0266
▁کتابوں	-10.027
▁ایو	-10.0273
▁بچنے	-10.0273
▁چارٹ	-10.0275
▁بمباری	-10.0281
▁دفاعی	-10.0294
▁غلامی	-10.0298
▁ہیرو	-10.0302
▁ٹرانسمیشن	-10.0323
▁تازہ	-10.0323
co	-10.0324
▁رکھے	-10.0329
▁ایشیا	-10.033
▁چلایا	-10.0332
▁مزدوری	-10.0333
ئل	-10.0334
▁کارکنوں	-10.0339
▁بیورو	-10.0346
▁لگ	-10.0348
ولی	-10.0353
▁(4	-10.0353
▁اسرائیلی	-10.0355
▁ویلز	-10.0379
▁طیاروں	-10.038
▁مقاصد	-10.038
▁انڈسٹری	-10.038
▁سوال	-10.0383
▁فورا	-10.0388
▁آبائی	-10.039
mi	-10.0395
ٹرن	-10.0405
▁ایریا	-10.0408
▁گری	-10.0427
▁معلوم	-10.043
کشن	-10.043
▁براؤن	-10.0437
▁اسفالٹ	-10.0437
▁تووالو	-10.0437
▁اسکالرز	-10.0446
▁رن	-10.0449
▁عوامل	-10.0452
▁شکاریوں	-10.0453
▁بیٹا	-10.0456
▁سوچا	-10.046
▁برلن	-10.0463
37	-10.047
▁کارڈینل	-10.0475
▁چارج	-10.0478
▁ہیٹن	-10.0489
▁لسانی	-10.049
▁اتھارٹی	-10.0494
▁رابطے	-10.0494
▁عبادت	-10.0494
▁مراکز	-10.0494
▁ڈاک	-10.0499
▁باقیات	-10.0507
▁گرا	-10.051
▁عثمانیہ	-10.0516
▁تجرباتی	-10.0518
▁(3	-10.0528
ؤ	-10.0529
ں	-10.0533
▁گنا	-10.0533
ورا	-10.0541
▁بور	-10.055
▁ادائیگی	-10.0552
▁استحکام	-10.0552
▁حوالے	-10.0552
▁طیارے	-10.0552
▁ویتنام	-10.0552
▁تغیرات	-10.0555
▁کورک	-10.0559
▁رہائشیوں	-10.0573
▁امیدوار	-10.0574
ph	-10.0581
ہو	-10.0585
میٹ	-10.0592
K	-10.0594
57	-10.0594
et	-10.0596
▁تنازعات	-10.061
▁نینٹینڈو	-10.061
▁کھٹمنڈو	-10.061
▁یوکرائن	-10.061
▁چوتھی	-10.061
▁خوردہ	-10.0611
▁ٹائٹل	-10.0611
▁آتی	-10.0618
▁فرنٹ	-10.0618
▁کین	-10.0645
81	-10.0656
▁خاتون	-10.0669
▁مادہ	-10.067
▁سمجھتے	-10.067
▁کیشنز	-10.0671
▁میسنری	-10.0672
▁آل	-10.0679
▁ہانگ	-10.068
▁نسب	-10.0687
▁ڈبل	-10.0702
84	-10.0703
▁ٹیمیں	-10.0709
96	-10.0721
51	-10.0723
▁راؤنڈ	-10.0728
▁یوگوسلاویہ	-10.0728
▁1945	-10.073
▁(5	-10.0738
▁منگول	-10.075
▁خانقاہ	-10.075
▁تجربات	-10.0762
▁کمیونٹیز	-10.0774
93	-10.0779
▁ہیل	-10.0784
▁بخش	-10.0787
▁مائیکروسافٹ	-10.0787
▁ماضی	-10.0787
▁منشیات	-10.0787
▁مائکرو	-10.0788
▁مقناطیسی	-10.0793
▁ڈالنے	-10.0795
▁لائی	-10.0823
▁سیاحت	-10.0823
▁یونانیوں	-10.0832
▁سیکنڈ	-10.0841
▁تصاویر	-10.0846
▁مضمون	-10.0846
▁سیکھنے	-10.0846
بیٹ	-10.0855
فور	-10.0859
▁بڑھایا	-10.086
il	-10.089
کیٹ	-10.09
▁اجداد	-10.0906
▁اہداف	-10.0906
▁سامعین	-10.0906
▁قبیلے	-10.0906
▁چوتھے	-10.0906
▁میڈیسن	-10.0906
▁ایورٹن	-10.0906
▁گوام	-10.0908
▁1988	-10.0909
▁اصولوں	-10.0909
فٹ	-10.0924
▁بیماریوں	-10.0928
▁فلسفی	-10.0929
▁پیرا	-10.0932
63	-10.0945
▁رکھا۔	-10.0949
بون	-10.095
19	-10.095
▁نیم	-10.0954
▁بمقابلہ	-10.0966
▁منفرد	-10.0966
▁رہتی	-10.097
▁ڈیموکریٹک	-10.097
▁مراد	-10.0971
▁فرینک	-10.0971
▁فرد	-10.0979
▁لائیو	-10.0981
▁پیانو	-10.0984
▁جرمنوں	-10.0989
,000	-10.0995
▁تال	-10.0996
سیس	-10.1005
▁منی	-10.1008
▁عیسائیوں	-10.1012
▁بوٹ	-10.1025
...	-10.1027
▁نمک	-10.1029
▁ایسڈ	-10.1029
▁1939	-10.103
▁1979	-10.103
چو	-10.1032
▁زد	-10.1036
▁لاک	-10.1037
ریج	-10.1043
▁ہوگیا۔	-10.1048
ومی	-10.1048
▁حریف	-10.1051
▁پڑوسی	-10.1052
▁مسلمانوں	-10.1057
یچ	-10.1065
▁حکومتوں	-10.1075
▁p	-10.108
▁جدوجہد	-10.1088
▁شرائط	-10.1088
▁متنازعہ	-10.1088
▁مہینوں	-10.1088
▁کائنات	-10.1089
▁ڈانس	-10.109
▁بولتے	-10.109
▁مورخین	-10.1091
▁خریداری	-10.1097
▁بالکل	-10.1103
26	-10.1117
▁افتتاح	-10.1125
▁میموری	-10.114
▁تصورات	-10.1143
83	-10.1148
▁بھ	-10.1149
▁تشخیص	-10.1149
▁ساؤنڈ	-10.1149
▁مبینہ	-10.1149
▁گوشت	-10.1149
▁کالونیوں	-10.115
▁1994	-10.1151
▁ٹائ	-10.118
▁آہنگ	-10.1181
71	-10.1181
77	-10.1195
سٹن	-10.1196
▁اصلاح	-10.1201
▁کرس	-10.1211
▁مشورہ	-10.1211
▁معاملے	-10.1211
▁اہتمام	-10.1211
▁طلب	-10.1211
▁خلیج	-10.1211
▁فلپائن	-10.1212
▁2016	-10.1214
▁پروٹو	-10.1217
▁بپٹسٹ	-10.123
ینا	-10.1253
47	-10.1256
ونڈ	-10.1258
ید	-10.1269
▁انکشاف	-10.1273
▁سفارش	-10.1273
▁صوبہ	-10.1273
▁لائف	-10.1273
▁گریجویٹ	-10.1273
▁چھوڑنے	-10.1291
▁اسٹیشنوں	-10.1297
سٹین	-10.1311
تقریبا	-10.132
▁بنانا	-10.1322
▁رول	-10.1331
Z	-10.1333
▁جانبدار	-10.1336
▁ریستوراں	-10.1336
▁1941	-10.1336
82	-10.1344
▁جذباتی	-10.1344
▁اشکنازی	-10.136
▁جانشین	-10.1383
▁ابھر	-10.1396
▁فاکس	-10.1399
▁پرفارمنس	-10.1401
▁1995	-10.1402
▁کیڑوں	-10.1402
▁گیلری	-10.1407
▁ماں	-10.1414
▁برج	-10.1418
▁ازم	-10.142
▁تار	-10.1423
▁مونو	-10.143
▁رنگین	-10.1432
35	-10.1434
▁گلوکار	-10.1454
▁1949	-10.1462
▁BYU	-10.1462
▁+	-10.1462
▁اولاد	-10.1465
وکس	-10.1465
اے	-10.147
▁فرش	-10.1471
▁مائیکل	-10.1472
▁گیٹ	-10.1488
▁ہاپ	-10.1489
▁آسانی	-10.1509
▁ہوگی	-10.1511
hi	-10.1511
▁پڑھ	-10.1524
▁اطلاق	-10.1526
▁اعانت	-10.1526
▁بزنس	-10.1526
▁کمپریشن	-10.1526
ci	-10.1531
di	-10.1542
▁یعنی	-10.1544
▁داخلہ	-10.1559
فو	-10.1571
▁بدل	-10.1582
چھ	-10.1585
va	-10.1586
پٹن	-10.1587
▁دیوتا	-10.1589
▁لیبارٹری	-10.159
▁مؤثر	-10.159
▁ٹکڑے	-10.159
▁منسٹر	-10.159
▁آتے	-10.1596
ھا	-10.1599
▁نیک	-10.1603
72	-10.1603
▁300	-10.1612
▁لیو	-10.1615
▁مدتی	-10.1622
▁کھلا	-10.1634
▁سرکٹ	-10.1638
یلا	-10.1643
▁بلاک	-10.1647
5،000	-10.1647
16	-10.1648
▁باب	-10.1651
▁ابتدا	-10.1652
▁آثار	-10.1654
▁حکام	-10.1654
▁سماعت	-10.1654
▁طبیعیات	-10.1654
▁کنفیڈریشن	-10.1654
▁کولمبیا	-10.1654
▁میزائل	-10.1655
▁سوانح	-10.1655
▁خلائی	-10.1656
▁ایجنٹ	-10.1659
▁سانٹا	-10.1667
▁میس	-10.1668
▁ملتے	-10.1671
▁حامی	-10.1683
▁جماعتوں	-10.1685
▁360	-10.1686
▁واقعے	-10.1693
▁اوک	-10.1695
▁سینٹی	-10.1704
▁کٹ	-10.1704
▁1987	-10.1719
▁مواقع	-10.1719
▁بیڑے	-10.1719
▁اینگلو	-10.1719
▁چیئرمین	-10.172
▁خالی	-10.1721
▁1974	-10.1721
▁1992	-10.1722
بس	-10.1723
▁سوم	-10.1732
▁گروہ	-10.1748
▁کھول	-10.1749
شیا	-10.1756
▁عبور	-10.176
▁کول	-10.1761
▁سین	-10.1761
▁ہائ	-10.1762
▁الیکٹرانک	-10.1773
▁احکامات	-10.1785
ٹوری	-10.1786
▁ڈور	-10.1789
▁جمہوریت	-10.179
2)	-10.1791
▁ابھی	-10.1792
▁بائیوٹکس	-10.1793
▁مضافاتی	-10.1794
ٹیم	-10.1803
▁ساحلی	-10.1805
W	-10.1807
▁دہائیوں	-10.1823
▁پابند	-10.1824
پورٹ	-10.183
▁ٹرسٹ	-10.1834
▁پلان	-10.1843
گین	-10.1844
▁جیو	-10.1848
▁پرت	-10.1848
▁(20	-10.185
▁ترغیب	-10.185
▁انٹیلی	-10.1851
▁بتایا	-10.1851
▁1996	-10.1853
▁آباؤ	-10.1855
▁اتنا	-10.1857
▁چھت	-10.1869
▁جائے۔	-10.188
▁پھول	-10.188
21	-10.1892
▁انتخابی	-10.1897
▁جرم	-10.1901
نیس	-10.1903
▁رقص	-10.1917
▁نصب	-10.1917
▁تحقیقی	-10.1917
▁1969	-10.1919
▁لوتھر	-10.1919
▁کسانوں	-10.1919
▁اسٹاپ	-10.1922
▁فال	-10.1923
▁پینل	-10.1926
سٹک	-10.1936
76	-10.1939
سٹا	-10.194
▁120	-10.194
▁اقلیت	-10.1941
تھر	-10.1941
وسین	-10.1945
▁خرابی	-10.1954
▁کرلیا	-10.1969
▁گور	-10.1974
▁آرکسٹرا	-10.1983
▁میوزیکل	-10.1983
▁اسٹریٹجک	-10.1983
▁پروشیا	-10.1984
74	-10.1987
▁قیمتوں	-10.1991
▁تقریبات	-10.1994
▁بائیو	-10.1994
▁کارڈ	-10.2007
میر	-10.2009
مار	-10.2011
▁سائنسدان	-10.2013
▁برآمد	-10.2014
▁نگار	-10.2032
▁سڑکوں	-10.2034
آئی	-10.2036
▁گیمز	-10.2036
ائٹس	-10.2042
▁صارف	-10.2046
▁لانگ	-10.2048
▁گھڑی	-10.2048
▁عالمگیر	-10.205
▁موصول	-10.205
▁کنندہ	-10.205
▁جامع	-10.205
▁اڈوں	-10.205
▁برائے	-10.205
▁نیلے	-10.2052
▁آئن	-10.2053
▁سوشلسٹ	-10.2053
▁امتیازی	-10.2055
▁باڈی	-10.2056
▁اجتماعی	-10.2056
▁$	-10.2072
▁ابن	-10.2072
▁فلیٹ	-10.2073
▁ملٹی	-10.2073
97	-10.2082
مہ	-10.2088
آر	-10.2095
مونٹ	-10.2101
▁ہو۔	-10.2104
کون	-10.2112
▁اضلاع	-10.2118
▁توثیق	-10.2118
▁قسطنطنیہ	-10.2118
▁ڈاؤن	-10.2118
▁نایاب	-10.2118
▁فلکیات	-10.2118
▁ہیلی	-10.2127
67	-10.2136
▁گواہوں	-10.215
▁ریاستیں	-10.2154
▁شیر	-10.2159
▁نفسیات	-10.2162
▁صدارت	-10.2162
▁متاثرہ	-10.2177
کوس	-10.2181
▁آدمی	-10.2186
▁بیکٹیریل	-10.2186
▁اسکرین	-10.2186
ٹرز	-10.2188
▁پڑھنے	-10.219
▁کوریائی	-10.2192
فل	-10.2198
▁پہنچے	-10.2205
▁ظاہری	-10.2209
▁قربانی	-10.2219
▁پر۔	-10.2228
یٹس	-10.2237
▁غذائی	-10.2249
▁ایکڑ	-10.2252
▁اعتراض	-10.2254
▁تھلگ	-10.2254
▁سہولیات	-10.2254
یئن	-10.2254
▁دفن	-10.2255
▁جشن	-10.2256
▁1993	-10.2257
▁پیری	-10.2277
▁مڈ	-10.2278
▁بناتی	-10.2281
▁خان	-10.2283
▁بیٹری	-10.2294
▁ریپ	-10.2308
▁اٹھا	-10.2311
▁قدر	-10.2321
▁بجے	-10.2323
▁ہوجاتا	-10.2323
▁فیڈریشن	-10.2323
▁سیکولر	-10.2323
▁مظاہرین	-10.2325
▁جوڑنے	-10.2327
▁اسٹاک	-10.2329
▁لیمپ	-10.2332
▁توڑ	-10.2345
▁گریٹر	-10.2346
▁کرو	-10.2349
▁رہ	-10.2355
ست	-10.2357
▁پڑا۔	-10.2362
▁دوڑ	-10.2363
اگو	-10.2365
▁75	-10.2367
▁آرکائیو	-10.2373
▁پہاڑ	-10.2387
▁بیرون	-10.2387
▁مینوفیکچرنگ	-10.2393
▁انڈیکس	-10.2394
▁1977	-10.2395
▁ٹول	-10.2396
▁ریور	-10.2397
▁پورٹو	-10.2398
▁فرانسس	-10.2398
▁150	-10.2399
pa	-10.2399
▁چلاتا	-10.2401
ian	-10.2404
▁الیکٹرو	-10.2408
▁ضروریات	-10.2409
sa	-10.2411
▁فیڈ	-10.2411
زین	-10.2416
▁ہوگا۔	-10.2418
▁کارروائیوں	-10.2419
▁شاعری	-10.2421
▁موسیقار	-10.2426
▁کلو	-10.2434
▁اسٹورز	-10.2434
▁1000	-10.2443
▁خوبصورت	-10.2463
▁غریب	-10.2463
▁مکینیکل	-10.2463
▁لوہے	-10.2463
▁سالگرہ	-10.2463
▁اسمتھ	-10.2463
▁فرض	-10.2464
▁1948	-10.2466
▁1985	-10.2466
▁گزر	-10.2466
▁موڑ	-10.2467
پول	-10.2468
▁رکھ	-10.247
یاں	-10.2475
▁نفسیاتی	-10.2488
راس	-10.2496
▁میٹا	-10.2512
▁سہ	-10.2519
کٹر	-10.2522
ننگ	-10.2525
▁اخراج	-10.2529
▁چوتھا	-10.2531
▁ناموں	-10.2533
▁کبھار	-10.2533
▁اخذ	-10.2533
▁اسٹوریج	-10.2533
▁بہاؤ	-10.2533
▁1976	-10.2535
▁اسپیس	-10.2544
▁اسٹیل	-10.2547
▁گال	-10.2562
▁بکس	-10.257
▁حامیوں	-10.2573
▁پلیئر	-10.2588
▁خاندانی	-10.2602
▁ایندھن	-10.2604
▁میانمار	-10.2604
▁دہشت	-10.2604
▁تہائی	-10.2604
▁قدیمہ	-10.2608
▁نوجوانوں	-10.2611
ائزڈ	-10.2621
▁پسندوں	-10.2622
▁مارنے	-10.2627
▁بھیج	-10.2627
▁زخمی	-10.2628
▁عراق	-10.2629
▁کہیں	-10.2635
▁ورکس	-10.2643
▁کنی	-10.2663
ویٹ	-10.2665
فین	-10.267
▁اعتراف	-10.2676
▁افسانوی	-10.2676
▁صوبوں	-10.2676
▁مقدمہ	-10.2676
▁ڈومینیکن	-10.2676
▁پنجاب	-10.2676
▁چیپل	-10.2678
▁نمونے	-10.2678
▁ملازمین	-10.2678
▁ویک	-10.268
ونک	-10.2681
▁مارٹن	-10.269
▁تفریحی	-10.2691
▁ریلی	-10.271
▁(17	-10.2715
▁مثالی	-10.2716
▁معدوم	-10.2745
▁رابطہ	-10.2747
▁سلامتی	-10.2747
▁ضبط	-10.2747
▁اسکائی	-10.2748
▁سمجھنے	-10.2751
▁باپ	-10.2762
▁کمپنیاں	-10.2767
▁بت	-10.2771
▁تاجروں	-10.2777
▁ایٹم	-10.2787
▁اولمپکس	-10.2789
بین	-10.2795
▁اکاؤنٹ	-10.28
▁پاک	-10.281
▁اونچا	-10.2818
▁اشتراک	-10.282
▁متوازی	-10.282
▁متنوع	-10.282
▁اسکرپٹ	-10.282
▁شریک	-10.282
▁اسپورٹس	-10.282
▁پروٹوکول	-10.282
▁جڑ	-10.2825
▁سومری	-10.2827
▁ایڈیٹر	-10.2834
کین	-10.2834
یوس	-10.2846
▁اسکیم	-10.2851
▁مضبوطی	-10.2861
▁ججوں	-10.2873
اہ	-10.2877
▁نویں	-10.2879
ad	-10.2887
28	-10.2887
é	-10.2893
▁تشدد	-10.2893
▁تلفظ	-10.2893
▁مدمقابل	-10.2893
▁مینجمنٹ	-10.2893
▁نمیبیا	-10.2893
▁ڈھانچہ	-10.2893
▁ٹوٹ	-10.2893
▁صاف	-10.2893
▁باؤل	-10.2899
▁تبدیلیاں	-10.2906
ts	-10.291
▁چاندی	-10.2912
▁نقصانات	-10.2918
▁اوپری	-10.2931
▁پس	-10.2937
کلی	-10.2942
یں۔	-10.295
ڈیل	-10.2952
▁انجینئر	-10.2957
بری	-10.2958
▁قومیت	-10.2959
▁خلا	-10.2959
▁فاموں	-10.2962
▁کمپیوٹرز	-10.2966
▁متوجہ	-10.2966
▁تناؤ	-10.2967
▁سائیڈ	-10.2967
ورڈ	-10.2968
▁چلتی	-10.2969
▁1971	-10.2969
▁ہڈی	-10.2971
▁آرام	-10.2984
94	-10.2994
▁پرجاتی	-10.3004
▁سرپرست	-10.3012
▁پادریوں	-10.3017
▁سائ	-10.3018
ایس	-10.3021
▁الکاہل	-10.3041
▁علماء	-10.3041
▁محققین	-10.3041
▁ایسٹونین	-10.3041
▁جائیں	-10.3041
▁منایا	-10.3041
▁تکمیل	-10.3041
کے	-10.3042
▁خام	-10.3047
▁کانگ	-10.3054
سم	-10.3056
▁انڈے	-10.3057
▁پریشانی	-10.3059
ایم	-10.3069
▁بازو	-10.3073
ہم	-10.3079
▁ارب	-10.3082
▁لڑ	-10.3091
▁ایلن	-10.3093
▁£	-10.3096
▁دائر	-10.31
▁ٹرو	-10.3113
▁انتقال	-10.3115
▁ریڑھ	-10.3115
▁ضوابط	-10.3115
▁خزاں	-10.3115
▁قطب	-10.3115
▁بنتا	-10.3122
▁پہلوان	-10.3123
ent	-10.3124
نٹس	-10.3129
▁سکھ	-10.3135
▁سور	-10.3138
▁Ma	-10.3147
▁مسلمان	-10.3162
ə	-10.3182
▁تاخیر	-10.319
▁دفاتر	-10.319
▁سلطان	-10.319
▁ہنوور	-10.319
▁پیدل	-10.319
▁گانوں	-10.3191
▁The	-10.3191
▁کاشت	-10.3191
▁نامزدگی	-10.3194
▁فرسٹ	-10.3199
▁جنگلات	-10.3199
▁نوبل	-10.32
▁نازی	-10.3219
▁بگ	-10.3226
▁مسافر	-10.3229
▁شاعر	-10.3236
▁ٹار	-10.324
ارٹ	-10.3243
▁لی۔	-10.3249
▁سیکسن	-10.326
▁اقدام	-10.3262
▁اقدار	-10.3266
▁تعارف	-10.3266
▁ظہور	-10.3266
▁متضاد	-10.3266
▁ویکیوم	-10.3266
▁سچائی	-10.3268
▁تفصیلات	-10.3268
▁کاپیاں	-10.327
▁جوڑے	-10.3273
▁مدار	-10.3273
▁الہی	-10.328
).	-10.3294
▁کھیلنے	-10.3295
▁پڑ	-10.3296
▁جینوں	-10.3296
▁ٹام	-10.3298
ho	-10.3317
▁ایمان	-10.3341
▁ایتھلیٹک	-10.3342
▁مربوط	-10.3342
▁1944	-10.3342
▁چھٹے	-10.3342
▁کامکاسٹ	-10.3342
میٹر	-10.3342
▁اسٹائل	-10.3344
▁گاؤں	-10.3349
▁ماؤنٹین	-10.3354
▁پرستوں	-10.3361
▁ہائیڈرو	-10.3367
▁جونیئر	-10.3369
▁سوار	-10.3372
man	-10.3373
▁(16	-10.3376
رڈ	-10.3382
▁قید	-10.3394
23	-10.3407
▁بنایا۔	-10.3411
▁اشنکٹبندیی	-10.3419
▁ثانوی	-10.3419
▁وعدہ	-10.3419
▁دھمکی	-10.3419
▁مونٹانا	-10.342
▁پیسہ	-10.342
▁رواج	-10.3421
▁جوڑتا	-10.3423
▁مرکبات	-10.3431
ریڈ	-10.3434
▁کرداروں	-10.344
▁صف	-10.3446
▁ڈومین	-10.3451
▁جماعت	-10.3452
▁گواہ	-10.3465
▁معمول	-10.3473
اکا	-10.3479
وئی	-10.3485
▁الیکٹران	-10.3487
▁ہند	-10.3487
▁سینا	-10.3492
▁آلودگی	-10.3497
▁مجسمہ	-10.3497
▁مرحلہ	-10.3497
▁ایوسینا	-10.3497
▁ضمانت	-10.3497
▁بدعت	-10.3497
▁بٹومین	-10.3497
▁باسکٹ	-10.3498
▁طول	-10.3498
▁ساموا	-10.35
ka	-10.3502
اسی	-10.3504
▁سیاحوں	-10.3506
▁میگ	-10.3513
▁قیدیوں	-10.3515
▁توپ	-10.3525
▁مول	-10.3529
ir	-10.3535
▁دیواروں	-10.3552
▁عدالتوں	-10.3561
▁منزل	-10.3567
▁فلمیں	-10.3574
▁راغب	-10.3575
▁شدت	-10.3575
▁قدامت	-10.3575
▁متوقع	-10.3575
▁معطل	-10.3575
▁منسوب	-10.3575
▁وغیرہ	-10.3575
▁یونیکوڈ	-10.3575
▁جارہا	-10.3575
▁اموات	-10.3575
▁دوچار	-10.3575
▁انگور	-10.3576
▁1917	-10.3579
▁اتنی	-10.3579
▁آزادانہ	-10.358
▁سولو	-10.3582
▁ڈیک	-10.3584
▁سیمی	-10.3585
▁فریق	-10.3589
▁کنٹری	-10.3592
me	-10.3603
▁اپنانے	-10.3604
▁رنگوں	-10.3605
▁اخبارات	-10.3606
▁افتتاحی	-10.3606
یان	-10.3609
▁ٹائپ	-10.3615
▁انجن	-10.3637
▁افعال	-10.3654
▁عمودی	-10.3654
▁گراؤنڈ	-10.3654
▁یونائیٹڈ	-10.3654
▁تہجی	-10.3654
▁کوانٹم	-10.3654
▁1964	-10.3659
▁شق	-10.3659
▁نہاد	-10.366
▁ہٹانے	-10.3664
▁اگ	-10.3668
▁ہوگی۔	-10.3672
▁فیس	-10.3681
▁جنگل	-10.3682
▁جگہوں	-10.3684
گرا	-10.3695
رج	-10.3696
▁بیوی	-10.3697
▁ویلی	-10.3709
▁تحریر	-10.3725
ː	-10.3733
▁خدشات	-10.3733
▁مذمت	-10.3733
▁ایڈجسٹ	-10.3733
▁تائیوان	-10.3734
▁پہلوؤں	-10.3734
▁1972	-10.3736
▁موڈ	-10.3736
▁آئلینڈ	-10.3738
یلو	-10.3741
▁1900	-10.3748
▁عدالتی	-10.3749
▁جیانگ	-10.3749
▁گریز	-10.3765
▁نیپال	-10.378
▁فوڈ	-10.3787
▁ماریا	-10.3807
▁میساچوسٹس	-10.3813
▁ویکسین	-10.3813
▁مرتب	-10.3814
▁کرسٹل	-10.3815
▁انجیل	-10.3816
▁لڑنے	-10.3817
وار	-10.3821
▁غذائیت	-10.3821
mo	-10.3822
ینو	-10.3824
ران	-10.3837
▁44	-10.3838
دیکھیں	-10.3838
ٹیس	-10.3886
▁چڑھ	-10.389
▁مذاہب	-10.3894
▁کھپت	-10.3894
▁خلیات	-10.3894
▁سوازیلینڈ	-10.3894
▁کمرے	-10.3894
▁دمہ	-10.3894
▁پمپ	-10.3895
▁جلتا	-10.3895
▁زمینوں	-10.3898
▁میجر	-10.3898
ائر	-10.3899
▁1918	-10.3899
▁آئس	-10.3909
▁اداکار	-10.391
▁بھرتی	-10.3917
▁ذہن	-10.3923
▁یہودیت	-10.3928
▁وول	-10.3937
▁آئل	-10.3944
▁فوجوں	-10.3945
▁گولڈ	-10.3953
▁ہاتھوں	-10.3953
رب	-10.3961
▁دانوں	-10.3969
▁انٹرٹینمنٹ	-10.3975
▁باقاعدگی	-10.3975
▁عقیدہ	-10.3975
▁1961	-10.3975
▁سوائے	-10.3975
▁ارادہ	-10.3975
▁یکساں	-10.3975
▁1967	-10.3978
▁میونسپلٹی	-10.3978
▁1978	-10.398
وما	-10.398
▁حراستی	-10.3981
▁ساتھی	-10.3983
▁برون	-10.3984
▁ہاٹ	-10.399
گس	-10.3995
po	-10.3997
▁سنگ	-10.4001
▁ٹیسٹنگ	-10.4001
▁اداکاری	-10.4002
ڈیا	-10.4024
یرا	-10.4027
▁سفارت	-10.4028
▁آوازوں	-10.4039
تن	-10.4047
▁صلیبی	-10.4049
▁اخلاقی	-10.4053
▁بھاگ	-10.4053
▁تھری	-10.4054
▁انڈو	-10.4055
▁اوسطاً	-10.4057
▁ایکسپلورر	-10.4057
▁فلسفے	-10.4057
▁موبائل	-10.4057
▁نمونہ	-10.4057
▁دسویں	-10.4057
▁دنوں	-10.4059
▁سزائے	-10.4059
▁عنوانات	-10.4072
▁ریکو	-10.4074
▁رکھی۔	-10.4077
الا	-10.4079
لیم	-10.4081
de	-10.4117
▁جمہوری	-10.4124
▁ایلی	-10.4125
ولین	-10.4139
▁دستبردار	-10.414
▁پارلیمانی	-10.414
▁دکان	-10.414
▁شیڈول	-10.414
▁تھیوری	-10.414
▁1984	-10.4143
▁ایوی	-10.4152
▁الزامات	-10.4154
▁ینگ	-10.4163
▁جارجیا	-10.4166
ut	-10.4175
▁ٹیکنالوجیز	-10.4179
▁دھن	-10.4184
انس	-10.4187
▁بوس	-10.4215
▁مقدمات	-10.4223
▁ڈویلپمنٹ	-10.4223
▁گہری	-10.4223
▁روانہ	-10.4226
▁ہیلتھ	-10.4227
▁1973	-10.4228
▁آرتھر	-10.4231
▁400	-10.4231
▁روسیوں	-10.4232
پنگ	-10.4233
▁رائن	-10.424
▁پہنچایا	-10.4241
▁نکل	-10.4244
▁کارڈینلز	-10.4252
مثال	-10.4253
tr	-10.4255
لام	-10.4261
▁جانسن	-10.4261
ck	-10.4265
▁سلطنتوں	-10.4275
رگ	-10.4277
▁فرم	-10.4278
ation	-10.428
▁سپیکٹر	-10.4297
og	-10.4301
▁ڈرامائی	-10.4307
▁پیپلز	-10.4307
▁ٹرانسپورٹ	-10.4308
▁سینئر	-10.4308
▁واقفیت	-10.4308
▁معدنیات	-10.4308
▁دریاؤں	-10.431
▁میموریل	-10.432
▁نہر	-10.4324
▁کیبس	-10.4326
▁بیسن	-10.4334
▁فیئر	-10.4339
رٹ	-10.4342
▁موسیقاروں	-10.4352
گوٹ	-10.4361
▁پریڈ	-10.4367
▁کوچ	-10.4375
he	-10.4378
▁دکھا	-10.4381
▁سرنگ	-10.4382
▁ہالی	-10.4385
▁1966	-10.4392
▁کمپلیکس	-10.4392
▁ہوجائے	-10.4392
▁مینیجر	-10.4392
▁ٹھوس	-10.4392
▁کینساس	-10.4392
▁برٹش	-10.4393
▁فلسفیانہ	-10.4393
▁پیک	-10.4393
▁اسپیڈ	-10.4394
▁لینڈنگ	-10.4396
▁کھلے	-10.4397
▁چلائی	-10.44
کاری	-10.4404
اوی	-10.441
▁جوڑ	-10.441
▁البمز	-10.4412
▁الب	-10.4416
▁آرچ	-10.4419
bi	-10.443
▁گاڑی	-10.4438
▁تعلیمات	-10.444
▁آبادیوں	-10.446
▁ڈری	-10.4464
▁پہچان	-10.4465
▁سختی	-10.4476
▁قلعے	-10.4477
▁مچھلی	-10.4477
▁کھڑا	-10.4477
▁برانڈ	-10.4477
▁سوراخ	-10.4478
▁بچانے	-10.4482
▁لائنز	-10.4484
▁کشتی	-10.4484
ڈے	-10.4485
ڈنگ	-10.4496
▁کوریج	-10.4498
▁رائ	-10.4498
▁وینس	-10.45
▁ایسٹر	-10.4506
▁اسٹیج	-10.4514
▁Co	-10.4514
▁گیری	-10.4523
▁ذہنی	-10.4532
▁کاسٹ	-10.455
▁میرین	-10.4557
▁احترام	-10.4563
▁تدفین	-10.4563
▁تزئین	-10.4563
▁تصادم	-10.4563
▁دعوت	-10.4563
▁غائب	-10.4563
▁مذاکرات	-10.4563
▁پائلٹ	-10.4563
▁خلیوں	-10.4564
▁ٹرانسمیٹر	-10.4564
▁مماثلت	-10.4566
▁1986	-10.4567
▁1975	-10.4567
▁گرامر	-10.4567
▁علی	-10.4568
▁رکنیت	-10.4569
▁تکلیف	-10.4578
▁وقفے	-10.4581
▁ویانا	-10.4589
ba	-10.4607
▁سائنسدانوں	-10.4611
▁پریشان	-10.4628
▁پیلی	-10.4639
▁160	-10.4639
▁بصری	-10.465
▁عرض	-10.465
▁مراحل	-10.465
▁نقاب	-10.465
▁یوآن	-10.465
▁بچپن	-10.465
▁تھرمل	-10.465
▁نکولس	-10.465
▁جرسی	-10.4652
▁پریمیر	-10.4652
▁روحانی	-10.4653
▁1914	-10.4656
sh	-10.4662
▁فرانسسکو	-10.4662
پلی	-10.4667
موس	-10.4671
▁چیزوں	-10.4683
سکا	-10.4685
▁لیتے	-10.4691
▁گارڈن	-10.4699
▁معمار	-10.4701
▁بستی	-10.4709
▁پینے	-10.471
▁گڈ	-10.4716
▁پالیسیوں	-10.4724
▁غذا	-10.4736
▁محافظ	-10.4738
▁آکسائڈ	-10.4738
▁حصول	-10.4738
▁ملحقہ	-10.4738
▁نشاۃ	-10.4738
▁بارہویں	-10.4738
▁بتائیں	-10.4738
▁فیکلٹی	-10.4738
▁1982	-10.4741
▁ثانیہ	-10.4745
▁فیفا	-10.4747
▁مالکان	-10.4751
▁ڈیلی	-10.4753
▁قرضے	-10.4761
▁ٹیبل	-10.4762
▁دیں۔	-10.4763
▁فارس	-10.4765
▁رہائی	-10.4768
08	-10.4776
▁دستاویزی	-10.4778
ine	-10.4781
▁سانس	-10.4795
▁بیلٹ	-10.4798
▁فنکشن	-10.48
▁ریو	-10.4802
یش	-10.4809
▁پیر	-10.4824
▁لمبا	-10.4825
Q	-10.4827
▁BeiDou	-10.4827
▁صبح	-10.4827
▁پروسیسنگ	-10.4827
▁میکسیکن	-10.4827
▁انٹرفیس	-10.4827
▁آفیسر	-10.4828
▁1981	-10.483
▁سکے	-10.4832
▁ڈیس	-10.4832
,6	-10.4846
▁ایری	-10.4852
▁ماری	-10.4854
▁فرقہ	-10.486
▁اناج	-10.4861
▁موضوعات	-10.4863
im	-10.4867
▁موٹرز	-10.4884
▁لیتا	-10.4894
ریم	-10.4895
▁ہارٹ	-10.4898
ء	-10.4911
▁اسکندریہ	-10.4916
▁اوقیانوس	-10.4916
▁خیراتی	-10.4916
▁دھماکے	-10.4916
▁ناقص	-10.4916
▁نمائندوں	-10.4916
▁پروسیا	-10.4917
▁of	-10.4917
▁1963	-10.4919
▁1860	-10.4925
▁مالا	-10.4927
ٹکس	-10.4929
وٹو	-10.4941
▁KU	-10.4941
▁سون	-10.4941
▁واک	-10.4944
▁لیٹر	-10.4946
▁کرنٹ	-10.4953
یسس	-10.4959
▁فنون	-10.4964
▁(6	-10.4964
▁کورس	-10.4966
▁بندرگاہوں	-10.4969
▁روکا	-10.4969
tic	-10.497
▁سمجھ	-10.4972
ونٹ	-10.4979
▁درختوں	-10.4984
سکو	-10.4991
▁بچت	-10.4991
▁52	-10.5
▁عمری	-10.5001
▁افسر	-10.5001
▁نارمن	-10.5004
▁لغت	-10.5006
▁اساتذہ	-10.5006
▁بظاہر	-10.5006
▁تھورنگیا	-10.5006
▁حیرت	-10.5006
▁فوائد	-10.5006
▁ٹرانزٹ	-10.5006
▁یروشلم	-10.5006
▁آپریٹنگ	-10.5006
▁موقف	-10.5006
ڈیم	-10.5007
▁خیز	-10.5009
▁انکوڈنگ	-10.5009
یٹی	-10.501
tu	-10.5011
▁Sa	-10.5011
▁تھیم	-10.5024
▁پڑھا	-10.503
▁آور	-10.503
▁سنبھالا	-10.5034
▁پوائنٹس	-10.5042
ae	-10.5043
▁نوٹر	-10.5043
▁علمی	-10.5044
▁ایج	-10.5047
▁عہدیدار	-10.506
گار	-10.5063
▁قدم	-10.5072
▁ڈیوائس	-10.5077
▁ایجنسیوں	-10.5089
4،000	-10.5097
▁خطرناک	-10.5097
▁صحافی	-10.5097
▁مطلق	-10.5097
▁ٹرافی	-10.5097
▁انفرا	-10.5098
▁کمشنر	-10.5098
▁1958	-10.5101
▁سپیکٹرم	-10.5107
▁ٹانگ	-10.5108
▁پڑتال	-10.5116
em	-10.5117
▁فضائیہ	-10.512
▁بائی	-10.5123
▁معاشیات	-10.5125
▁اسٹوڈیوز	-10.5131
▁نشست	-10.5144
▁رہے۔	-10.515
ولو	-10.5153
بول	-10.5156
▁سرے	-10.5159
اخ	-10.5176
▁کریں۔	-10.5177
▁آئ	-10.5178
بار	-10.5187
▁ارسطو	-10.5189
▁ناقدین	-10.5189
▁چائلڈ	-10.5189
▁گھنٹہ	-10.5189
▁سرزمین	-10.5189
▁کرنسی	-10.5189
▁اسٹالن	-10.519
▁پسندیدہ	-10.519
▁مطلوبہ	-10.519
▁گزار	-10.5191
▁وسطیٰ	-10.5191
▁1983	-10.5192
▁1937	-10.5192
05	-10.5193
▁جیکسن	-10.5194
پولس	-10.5196
▁La	-10.5201
تہ	-10.5204
▁واٹ	-10.5205
▁سار	-10.5209
عام	-10.521
▁ڈیٹ	-10.5216
▁فنڈز	-10.5222
▁پلا	-10.5244
▁ویو	-10.525
اوا	-10.5269
سیف	-10.5271
متوفی	-10.5281
▁رسومات	-10.5281
▁قرارداد	-10.5281
▁مفید	-10.5281
▁لکھتے	-10.5284
▁سپورٹ	-10.5284
▁بازی	-10.5285
▁1953	-10.5285
لیب	-10.5293
▁ویڈیوز	-10.5294
▁100،000	-10.5294
▁مہمان	-10.5303
▁اولڈ	-10.5305
▁تاجر	-10.5321
ولر	-10.5328
▁گرے	-10.5331
ie	-10.5346
▁چاند	-10.535
▁پروگرامنگ	-10.535
چین	-10.5352
-10	-10.5355
بیس	-10.5357
▁رجسٹر	-10.5363
do	-10.5373
▁معاشروں	-10.5375
▁مقدمے	-10.5375
▁وکالت	-10.5375
▁کنیکٹیکٹ	-10.5375
▁ادوار	-10.5375
▁شخصیات	-10.5375
▁شاندار	-10.5375
▁دیکھتے	-10.5382
▁رکھنا	-10.5383
▁لڑی	-10.5384
▁شور	-10.5387
▁اتار	-10.5397
ly	-10.5403
▁راستوں	-10.5409
▁بنی	-10.5438
یڈس	-10.5449
nt	-10.5468
▁والٹ	-10.5469
α	-10.5469
3،000	-10.5469
▁انڈرگریجویٹ	-10.5469
▁ریفرنڈم	-10.5469
▁مانچسٹر	-10.5469
▁موافقت	-10.5469
▁نشوونما	-10.5469
▁نژاد	-10.5469
▁زمرے	-10.5469
▁کابینہ	-10.5469
▁گہرائی	-10.547
▁قبر	-10.547
▁معاون	-10.5471
▁اہل	-10.5473
▁1968	-10.5474
لوں	-10.5475
▁ایرینا	-10.5476
▁نشستیں	-10.5477
▁بھیجے	-10.5479
▁بڑھتا	-10.5492
▁صوتیات	-10.5518
کور	-10.552
700	-10.5528
▁مارے	-10.5528
فارم	-10.5531
ran	-10.5531
وچ	-10.5533
▁کروز	-10.5545
▁کتابیں	-10.5546
یکو	-10.5549
▁موریس	-10.5561
▁الذکر	-10.5564
▁انتھروپولوجی	-10.5564
▁انعقاد	-10.5564
▁جیفرسن	-10.5564
▁حجم	-10.5564
▁طیارہ	-10.5564
▁مؤخر	-10.5564
▁مملکت	-10.5564
▁فعل	-10.5564
▁قائل	-10.5565
▁لکھ	-10.5568
▁1922	-10.5568
▁نوازا	-10.5569
▁رہی۔	-10.5581
▁وائرس	-10.5584
▁سننے	-10.5585
▁پیلس	-10.5591
▁کردی۔	-10.5605
▁مارکس	-10.5606
da	-10.5614
▁ریت	-10.5615
▁ہول	-10.562
فون	-10.5631
▁ریف	-10.5632
یعنی	-10.5634
انٹ	-10.5638
▁برادریوں	-10.5638
▁بنتی	-10.5645
▁وائر	-10.5651
▁ایجوکیشن	-10.566
▁دروازے	-10.566
▁رومانٹک	-10.566
▁ظلم	-10.566
▁ٹورنامنٹ	-10.566
▁1952	-10.566
▁تشویش	-10.566
▁انگیز	-10.5661
▁آرکیٹیکچرل	-10.5661
▁کنیکٹر	-10.5661
▁چوتھائی	-10.5663
▁1880	-10.5675
▁بینکوں	-10.5675
▁لانے	-10.5702
▁مسیحی	-10.5703
▁ڈیکو	-10.5711
▁شوز	-10.5735
▁لیپ	-10.5741
▁لفظی	-10.5746
▁قوموں	-10.5752
▁حساس	-10.5755
▁طب	-10.5756
▁مجرم	-10.5757
▁افغانستان	-10.5758
▁خطوط	-10.5758
▁لطف	-10.5758
▁براڈوے	-10.5758
▁طبقات	-10.5758
▁جرنل	-10.5758
▁توازن	-10.5758
▁برسوں	-10.5758
▁چمک	-10.5758
پری	-10.5758
▁نامیاتی	-10.5759
▁اینجلس	-10.5764
شل	-10.5764
▁سیپ	-10.5765
▁سیکنڈری	-10.5767
▁بالٹک	-10.5768
▁all	-10.5771
▁10،000	-10.5772
شپ	-10.5778
▁پیلے	-10.5781
▁فائرنگ	-10.5781
▁مزدوروں	-10.5783
ant	-10.5794
▁(15	-10.5802
▁عہد	-10.5803
ڈٹ	-10.5807
کٹو	-10.5809
▁ہیو	-10.581
▁سمر	-10.5812
▁گلو	-10.5812
▁سوشل	-10.5852
▁راجستھان	-10.5856
▁شائقین	-10.5856
▁صوبائی	-10.5856
▁قارئین	-10.5856
▁سامورائی	-10.5856
▁الفریڈ	-10.5857
▁سنیما	-10.5857
▁خریدنے	-10.5858
▁کوارٹر	-10.5858
راڈ	-10.586
▁صفائی	-10.586
▁1956	-10.5861
▁حاضری	-10.5865
▁نکلا	-10.5871
▁فیری	-10.588
گیٹ	-10.5886
▁سفارتی	-10.589
لت	-10.5894
▁والٹر	-10.5894
▁بلند	-10.5901
دھا	-10.5902
ولس	-10.5905
نگس	-10.5907
▁پہنا	-10.5914
▁پابندیوں	-10.5921
▁ٹرائ	-10.5926
▁ویز	-10.5933
▁تفہیم	-10.5955
▁تھوڑا	-10.5955
▁جدت	-10.5955
▁دھوکہ	-10.5955
▁محاصرے	-10.5955
▁شعور	-10.5955
▁ورجل	-10.5955
▁اسسٹنٹ	-10.5956
▁مونیکا	-10.5956
▁ہینری	-10.5956
▁سہرا	-10.5959
▁1910	-10.596
▁صلیب	-10.5965
▁ہور	-10.5968
کلاسیکل	-10.5969
▁رالی	-10.5976
ell	-10.5979
▁تنگ	-10.5981
▁سرپرستی	-10.5993
▁جانشینی	-10.5993
▁بٹن	-10.5995
▁54	-10.5996
▁امور	-10.6002
▁آسمان	-10.6033
لسٹ	-10.604
ستان	-10.6041
▁چپ	-10.6044
یٹک	-10.6045
▁گلاس	-10.6046
▁الکحل	-10.6055
▁امیگریشن	-10.6055
▁برصغیر	-10.6055
▁گیارہویں	-10.6055
▁نیویگیشن	-10.6055
▁مورخ	-10.6056
▁1936	-10.6059
▁بھیجنے	-10.606
▁اندراج	-10.6061
▁نکالنے	-10.6062
▁خبر	-10.6063
▁ہاربر	-10.6063
▁نیورو	-10.607
▁راہبوں	-10.6082
▁ایکشن	-10.6088
▁ایٹن	-10.609
▁گلا	-10.6097
▁مہا	-10.6098
▁داخلے	-10.6101
▁عقل	-10.6114
▁گرانٹ	-10.6115
▁آربر	-10.6115
▁وفادار	-10.6121
نگٹن	-10.6132
▁ڈسکس	-10.6136
▁فیکٹری	-10.6137
▁میونسپل	-10.6152
▁برآں	-10.6156
▁براؤزر	-10.6156
▁بپتسمہ	-10.6156
▁قونصل	-10.6156
▁پیشرفت	-10.6156
▁اسپتال	-10.6156
▁نمونوں	-10.6156
▁گیند	-10.6156
▁سیلاب	-10.6162
▁صلاحیتوں	-10.6164
▁علموں	-10.6169
▁میسن	-10.6181
▁پچ	-10.6186
▁بد	-10.6189
▁الیکٹرانکس	-10.619
▁ٹریل	-10.6192
900	-10.6193
▁برڈ	-10.6194
▁کالجوں	-10.6197
▁کریم	-10.6201
▁پرانا	-10.6203
▁ہڈیوں	-10.6207
03	-10.6208
▁زبانی	-10.6209
▁پھولوں	-10.6212
▁بندوق	-10.6213
▁منطق	-10.6233
▁کروائی	-10.6236
▁پکڑ	-10.6257
▁اثاثوں	-10.6258
▁اقتصادی	-10.6258
▁ایریزونا	-10.6258
▁سینکڑوں	-10.6258
▁قلعہ	-10.6258
▁مسابقتی	-10.6258
▁مقابلوں	-10.6258
▁کھڑی	-10.6258
▁یوئیفا	-10.6258
▁پٹھوں	-10.6258
▁کوششیں	-10.6262
▁1965	-10.6263
▁1876	-10.6265
▁چلے	-10.6266
▁روزگاری	-10.6267
▁مانگ	-10.6268
▁جڑیں	-10.6269
▁کشش	-10.6271
▁چل	-10.6272
▁لاما	-10.6276
▁کورسز	-10.6282
▁تھائی	-10.6285
▁منہ	-10.6288
▁جولین	-10.6289
▁مہمات	-10.6306
▁سینیٹر	-10.6307
▁جلا	-10.6321
▁دشمنی	-10.6324
▁پلیس	-10.6326
▁باغ	-10.6334
▁گلیڈ	-10.6338
تھین	-10.6342
▁حسی	-10.6354
کوٹ	-10.6355
▁برداشت	-10.6361
▁سکاٹش	-10.6361
▁ہدایات	-10.6361
▁1943	-10.6361
▁میکانزم	-10.6361
▁اچھا	-10.6361
▁چیمبر	-10.6361
▁مہایان	-10.6361
▁ہڈسن	-10.6362
▁IV	-10.6364
▁خطاب	-10.6365
▁دلیل	-10.6365
▁اسکین	-10.6367
ab	-10.6368
▁رجسٹرڈ	-10.6371
▁the	-10.638
▁اوپ	-10.6392
▁گردش	-10.6392
▁یونیورسٹیاں	-10.6398
▁نیٹو	-10.6401
mp	-10.6408
▁گردی	-10.641
▁داریوں	-10.6413
▁کالم	-10.6415
وسٹ	-10.642
▁سائبر	-10.6423
▁ملے	-10.6448
جین	-10.645
▁پیغام	-10.646
▁گریگوری	-10.6462
XNUMX	-10.6465
▁اسٹراسبرگ	-10.6465
▁اکٹھا	-10.6465
▁تاجپوشی	-10.6465
▁لائبیریا	-10.6465
▁ماخذ	-10.6465
▁پرتشدد	-10.6465
▁کروموسوم	-10.6465
▁متفق	-10.6465
▁گٹار	-10.6465
▁ہوجاتی	-10.6465
▁دربار	-10.6465
▁مینوفیکچررز	-10.6467
▁گریمی	-10.6468
▁ہموار	-10.6469
▁کھولی	-10.6476
▁مشی	-10.6482
▁کانفرنسنگ	-10.6491
▁اڑا	-10.6493
▁گرنے	-10.6494
▁فرقے	-10.65
▁اوپن	-10.6507
▁نان	-10.6512
▁تحریروں	-10.6513
▁ٹیگ	-10.6515
▁بول	-10.6517
ya	-10.6523
▁(10	-10.654
▁ہینڈ	-10.6542
▁فنکار	-10.655
▁مثالوں	-10.6561
▁کھینچ	-10.6566
ث	-10.6569
▁اچھے	-10.657
▁تنخواہ	-10.657
▁خواندگی	-10.657
▁دیوالیہ	-10.657
▁سجاوٹ	-10.657
7،000	-10.657
▁ڈزنی	-10.657
▁اتوار	-10.6571
▁آبادکاری	-10.6572
▁براڈ	-10.6573
▁پائیدار	-10.6573
▁1955	-10.6575
▁پبوں	-10.6576
▁1.5	-10.6585
▁نیدرلینڈز	-10.6588
▁آرگن	-10.6598
▁لائٹنگ	-10.6602
▁رے	-10.6603
▁ہوکر	-10.6606
▁1800	-10.661
ٹور	-10.6614
▁جاز	-10.6615
▁اتر	-10.6618
▁انڈین	-10.6626
▁Ch	-10.664
▁بروک	-10.665
▁لیڈر	-10.6667
▁ساتھیوں	-10.6671
▁1931	-10.6677
▁انڈونیشیا	-10.6677
▁تابع	-10.6677
▁ینالاگ	-10.6677
▁پھینک	-10.6677
▁لبنان	-10.6677
▁بکنگھم	-10.6677
▁سٹریٹ	-10.6679
▁برفانی	-10.6681
▁مونٹینی	-10.6684
▁کوڈنگ	-10.6685
▁دائرے	-10.6687
▁چن	-10.6692
▁داروں	-10.6699
▁جنگجو	-10.6729
▁امدادی	-10.673
▁باری	-10.6732
▁42	-10.6736
▁رام	-10.675
کوف	-10.6756
▁کھا	-10.6776
▁نامے	-10.6777
بان	-10.6777
6،000	-10.6784
▁اشارے	-10.6784
▁رقبہ	-10.6784
▁معاملہ	-10.6784
▁یوراگوئے	-10.6784
▁نچلی	-10.6784
▁مغل	-10.6784
▁کنڈکٹر	-10.6784
▁فضلہ	-10.6786
▁مادی	-10.6786
▁میز	-10.6787
▁1946	-10.6788
▁مریضوں	-10.6803
▁مسٹر	-10.6804
▁کھیلتے	-10.6811
ru	-10.6814
یئم	-10.6821
▁باروک	-10.6824
ورٹ	-10.6825
وت	-10.6827
▁گاڑیوں	-10.6831
نوٹ	-10.6835
سپر	-10.6854
▁ریورس	-10.6865
▁ثانی	-10.6885
ec	-10.6885
▁محرک	-10.6888
ِ	-10.6893
▁افزائش	-10.6893
▁تاجکستان	-10.6893
▁صحارا	-10.6893
▁فائبر	-10.6893
▁منصفانہ	-10.6893
▁1954	-10.6893
▁ڈپٹی	-10.6893
▁اہلیہ	-10.6894
▁نادر	-10.6895
▁1957	-10.6897
▁سنٹرل	-10.6898
▁Pa	-10.6898
▁1912	-10.6898
▁کینسر	-10.6898
▁دیکھا۔	-10.6899
▁رہنمائی	-10.6903
▁1870	-10.6904
▁پینٹنگز	-10.6907
▁تپ	-10.6908
▁بڑھنے	-10.6918
▁ٹریننگ	-10.6918
ot	-10.693
▁ریک	-10.6936
▁فلور	-10.6938
دین	-10.6945
▁پون	-10.6968
▁برطرف	-10.6969
ers	-10.6981
▁سطحوں	-10.6983
▁سائنسز	-10.6983
▁1،	-10.6988
نیو	-10.7001
ν	-10.7003
▁ارتقائی	-10.7003
▁بدترین	-10.7003
▁زلزلہ	-10.7003
▁عبرانی	-10.7003
▁علوم	-10.7003
▁متعدی	-10.7003
▁بیشتر	-10.7003
▁سیارے	-10.7003
▁قبرستان	-10.7003
▁سکھایا	-10.7003
▁پرچم	-10.7005
au	-10.7005
▁1938	-10.7008
▁کھولنے	-10.7009
▁میکس	-10.7013
▁ترکیب	-10.7014
اکس	-10.7019
▁1840	-10.7022
▁فنڈنگ	-10.7025
▁خاصیت	-10.7045
ou	-10.7053
▁نظاموں	-10.7054
▁ہوں۔	-10.7058
▁صنعتوں	-10.706
▁راکٹ	-10.7071
▁امیدواروں	-10.7073
▁زبردست	-10.7089
▁پہنچی	-10.7094
▁سونگ	-10.7099
▁جیل	-10.7105
+	-10.7113
▁الپائن	-10.7114
▁انچارج	-10.7114
▁دشواری	-10.7114
▁مدافعتی	-10.7114
▁ناظرین	-10.7114
▁والنسین	-10.7114
▁1942	-10.7114
▁1861	-10.7114
▁نیویارک	-10.7114
▁مرکری	-10.7114
▁اسپیکر	-10.7114
▁فنکارانہ	-10.7115
▁چربی	-10.7115
▁مقدونیہ	-10.7115
▁نمو	-10.7116
▁VII	-10.7117
▁خوف	-10.7118
▁1962	-10.7118
کیا	-10.7121
کول	-10.7122
▁فائنلسٹ	-10.7126
▁ترقیاتی	-10.7129
▁لڑا	-10.7129
▁جوڑا	-10.713
▁Ca	-10.7133
▁کھلی	-10.7138
▁چھپا	-10.714
▁فرار	-10.7142
یئرز	-10.7142
▁لینا	-10.7144
▁آپریشنل	-10.7144
▁ہیری	-10.7152
▁فلائٹ	-10.7163
que	-10.717
▁مڈل	-10.7194
▁جائز	-10.7211
سپین	-10.7214
▁ہڑتال	-10.7226
▁تعامل	-10.7226
▁وزراء	-10.7226
▁کھڑے	-10.7226
▁مائع	-10.7226
▁منچو	-10.7226
▁جوآن	-10.7226
▁کوئین	-10.7226
▁انگوٹی	-10.7226
▁گھاس	-10.7227
▁نیند	-10.7227
▁کردیئے	-10.7229
▁کنکشن	-10.7233
▁ٹیلر	-10.7247
▁پرنٹنگ	-10.7248
▁شیٹ	-10.7259
▁ڈوب	-10.7268
▁ایٹمی	-10.7269
che	-10.727
▁پہنچا۔	-10.7286
▁میو	-10.7289
▁آئے۔	-10.7293
▁شان	-10.7297
▁گز	-10.73
,0	-10.7312
▁زیڈ	-10.7314
-4	-10.7319
▁لائنیں	-10.732
▁گینگ	-10.7324
▁ہاؤسنگ	-10.7328
▁سنی	-10.7333
▁ابو	-10.7336
کم	-10.7337
▁آکسفورڈ	-10.734
▁تقویت	-10.734
▁حصص	-10.734
▁نمٹنے	-10.734
▁ٹرانزسٹر	-10.734
▁چودہویں	-10.734
▁ڈھال	-10.734
▁رومانوی	-10.734
▁اسٹیفن	-10.734
▁بادل	-10.734
▁کرایہ	-10.734
▁درکار	-10.734
▁گھرانوں	-10.734
▁فرینکلن	-10.7341
جز	-10.7342
▁گھومنے	-10.7343
▁ریویو	-10.7343
▁1919	-10.7344
ag	-10.7344
▁بیساو	-10.7345
▁آرٹیکل	-10.7345
▁1959	-10.7345
▁گراف	-10.7347
بال	-10.7353
▁مخالفین	-10.7354
ist	-10.7363
▁یورپیوں	-10.7364
▁لوس	-10.7371
▁بستیوں	-10.7388
نوس	-10.7405
▁ایرو	-10.7407
▁چینیوں	-10.744
▁سوئچ	-10.7455
▁سپلائی	-10.7455
▁گریجویشن	-10.7455
▁گھنٹوں	-10.7455
▁گھوڑے	-10.7455
▁مادے	-10.7455
▁جارہی	-10.7455
▁کلارک	-10.7455
▁بروکلین	-10.7456
▁پہنتے	-10.7457
▁1913	-10.746
▁دق	-10.746
▁گزرنے	-10.7461
▁کتا	-10.7461
▁گاہوں	-10.7465
▁ناک	-10.7466
▁بیٹھ	-10.7468
▁لہروں	-10.7469
▁ہاکی	-10.747
▁نشانات	-10.7473
▁کرلیا۔	-10.7481
▁ٹیپ	-10.7489
▁ٹیوب	-10.7491
خاص	-10.7491
▁نیوی	-10.7499
▁ٹاورز	-10.7509
▁شہریت	-10.7523
▁عثمانیوں	-10.7526
ادی	-10.7534
سیٹ	-10.7537
▁Al	-10.7546
▁تفریح	-10.7547
▁مشنری	-10.7553
▁وولٹ	-10.7564
▁ستم	-10.757
▁کلور	-10.757
ɪ	-10.7571
▁اصرار	-10.7571
▁تصفیہ	-10.7571
▁عقیدت	-10.7571
▁قاعدہ	-10.7571
▁نباتات	-10.7571
▁نفاذ	-10.7571
▁اوباما	-10.7571
▁دھارے	-10.7571
▁آرائش	-10.7572
▁اسہال	-10.7572
▁ہلکے	-10.7572
▁ٹرام	-10.7572
▁بناء	-10.7573
▁کیریبین	-10.7573
▁پگھلنے	-10.7573
▁دکھائی	-10.7574
▁کیوبا	-10.7574
▁چکر	-10.7574
▁اعصابی	-10.7575
▁1947	-10.7575
sc	-10.7579
▁ٹٹو	-10.7579
▁عبدال	-10.758
0,000	-10.7582
میگنیٹ	-10.7582
▁رسل	-10.7584
▁آلے	-10.7589
ٹڈ	-10.7599
▁حکمرانوں	-10.76
▁سوویتوں	-10.7602
▁مرنے	-10.7606
▁پیروکاروں	-10.7608
▁حکومتی	-10.7616
▁خوش	-10.7631
▁ہاس	-10.7633
con	-10.7637
▁فرقوں	-10.7651
▁فصل	-10.7652
▁پیروکار	-10.7652
ke	-10.7661
سلاو	-10.7661
▁نیدرلینڈ	-10.7669
▁شاخوں	-10.7681
▁بنا۔	-10.7682
▁جاپانیوں	-10.7682
2،000	-10.7685
▁وہیل	-10.7687
▁استثنا	-10.7689
▁تبصرہ	-10.7689
▁مناظر	-10.7689
▁نامعلوم	-10.7689
▁ڈنمارک	-10.7689
▁گنجائش	-10.7689
▁ماڈیول	-10.7689
▁ہوچکی	-10.7689
▁سنہری	-10.7689
▁کیوبزم	-10.7689
▁محور	-10.7689
▁دکھائے	-10.769
▁کھاتے	-10.7691
▁1925	-10.7695
▁راج	-10.7696
▁موسمی	-10.7698
▁1890	-10.77
so	-10.7705
▁چیزیں	-10.7707
▁گیر	-10.7716
وسس	-10.7716
▁تخلیقی	-10.7721
▁1500	-10.7721
▁تم	-10.7722
-3	-10.7727
▁مردہ	-10.7728
▁اسٹیو	-10.7742
▁لاجز	-10.7743
▁لیڈی	-10.7743
ٹیٹ	-10.775
▁فائلوں	-10.7772
▁بھائیوں	-10.7774
▁بدنام	-10.7783
▁ریجن	-10.7787
تو	-10.7789
جسے	-10.7792
ہین	-10.7795
▁ملازم	-10.7804
▁متغیر	-10.7804
▁بوناپارٹ	-10.7808
▁دہندگان	-10.7808
▁فسادات	-10.7808
▁لیفٹیننٹ	-10.7808
▁مرطوب	-10.7808
▁ممنوع	-10.7808
▁گہرے	-10.7808
▁اینگلیکن	-10.7808
▁ہوجاتے	-10.7808
▁انٹرویو	-10.7808
▁ناممکن	-10.7808
▁ایڈمرل	-10.7808
▁مزاج	-10.7808
▁آرگنائزیشن	-10.7808
▁اخلاقیات	-10.7814
▁قیمتی	-10.7814
▁کینٹن	-10.782
▁1830	-10.7825
یئنز	-10.7836
▁کنٹرولر	-10.7837
▁کارگو	-10.7839
▁کھل	-10.784
▁آرکائیوز	-10.7842
▁فصلوں	-10.7845
▁وفاداری	-10.7849
▁بلاکس	-10.7849
▁چینلز	-10.7872
ومین	-10.788
▁جونز	-10.7882
▁ایون	-10.7891
ینس	-10.79
▁(12	-10.7909
▁دہی	-10.791
▁ولیمز	-10.7916
▁سیکس	-10.7923
▁ناراض	-10.7927
▁منصب	-10.7928
▁نمائندے	-10.7928
▁وابستگی	-10.7928
▁دھکیل	-10.7928
▁کمپیکٹ	-10.7928
▁حیات	-10.7928
▁فائز	-10.793
▁مایوس	-10.793
▁ملیشیا	-10.793
ترا	-10.7933
▁بنگال	-10.7934
▁یکم	-10.7934
▁بائیں	-10.7936
▁ستنداریوں	-10.7936
▁فائی	-10.7938
▁سربیا	-10.7942
▁موجد	-10.7946
od	-10.7946
▁واقعی	-10.7956
ویر	-10.7967
▁ڈاٹ	-10.7969
▁تحریکوں	-10.7978
br	-10.7985
▁43	-10.7994
▁ایڈی	-10.8
ویئر	-10.801
بعد	-10.8014
▁قبائلی	-10.803
▁اسکالر	-10.803
▁بارہ	-10.8036
▁افادیت	-10.805
▁ایتھوپیا	-10.805
▁فرنچائز	-10.805
▁میکینٹوش	-10.805
▁مجھے	-10.805
▁1911	-10.805
▁قطر	-10.805
▁سویڈن	-10.805
▁لڑکوں	-10.805
▁کیمسٹری	-10.805
▁مفادات	-10.8052
▁جملے	-10.8052
▁تولید	-10.8054
▁اگلی	-10.8057
▁تنقیدی	-10.8058
▁(11	-10.8058
▁سنگین	-10.8063
▁نالی	-10.8067
ایل	-10.8069
▁ہب	-10.8084
▁قرضوں	-10.8086
یرو	-10.8094
▁ایبل	-10.8095
▁نیپ	-10.8101
▁ساختی	-10.811
▁انڈر	-10.8125
▁کھیلے	-10.8141
ائڈس	-10.8147
بشمول	-10.8148
▁ہاؤسز	-10.8154
▁مختص	-10.8162
▁رسی	-10.8166
▁گھوم	-10.817
▁ڈیسک	-10.8171
▁ریٹائر	-10.8173
á	-10.8174
لامحدود	-10.8174
▁آدھے	-10.8174
▁آکسیجن	-10.8174
▁روزمرہ	-10.8174
▁نمائندہ	-10.8174
▁انفارمیشن	-10.8174
▁پتلی	-10.8174
▁پندرہویں	-10.8174
▁رگبی	-10.8174
▁ڈرامہ	-10.8174
▁پلاسٹک	-10.8174
▁ابتداء	-10.8174
▁نامیبیا	-10.8175
▁ریسلنگ	-10.8176
▁جلتی	-10.8176
▁پہننے	-10.8177
▁شوہر	-10.818
▁1934	-10.8181
▁فرمان	-10.8183
▁تائی	-10.8183
پان	-10.8203
▁باغیوں	-10.8207
▁تینوں	-10.8211
▁کھیلتی	-10.8212
▁برآمدات	-10.824
▁ماسکو	-10.8259
▁بچا	-10.8272
▁(8	-10.8284
▁رائٹس	-10.8291
ī	-10.8299
▁انتباہ	-10.8299
▁رضاکارانہ	-10.8299
▁قاصر	-10.8299
▁مثلث	-10.8299
▁محاذ	-10.8299
▁ڈپارٹمنٹ	-10.8299
▁آتش	-10.8299
▁پائپ	-10.8299
▁سباق	-10.8299
▁سیاق	-10.8299
▁قوس	-10.8303
▁1929	-10.8303
▁1927	-10.8303
▁سنت	-10.8304
▁پانچواں	-10.8304
▁فوسل	-10.8305
▁گرافی	-10.8308
▁فلمی	-10.8311
▁فونٹ	-10.8316
▁کانسی	-10.8319
▁میٹنگ	-10.8329
▁عہدوں	-10.8346
▁چوری	-10.8349
ub	-10.8351
,000،	-10.8359
▁برو	-10.8361
▁ڈیجی	-10.8364
ang	-10.8369
▁سنگلز	-10.8377
فن	-10.8393
100	-10.8395
▁ارل	-10.8407
▁ایش	-10.8415
ٰ	-10.8421
▁بازیافت	-10.8425
▁روزویلٹ	-10.8425
▁ریزولوشن	-10.8425
▁شرکاء	-10.8425
▁قطع	-10.8425
▁ٹھنڈا	-10.8425
▁1909	-10.8425
▁1924	-10.8425
▁بریگیڈ	-10.8425
▁بلقان	-10.8425
▁ونڈسر	-10.8425
▁داغ	-10.8426
▁موزوں	-10.8426
▁پرسکون	-10.8426
▁جلتے	-10.8427
▁ہٹلر	-10.8428
▁پوچھ	-10.8428
▁لکیری	-10.8428
▁سمجھتا	-10.8431
▁بچایا	-10.8433
▁لسانیات	-10.8435
▁امپ	-10.8435
▁گنتی	-10.8436
-15	-10.8437
▁سوالات	-10.8443
▁ڈرا	-10.8452
▁بینر	-10.8473
▁ووٹنگ	-10.8489
-12	-10.8493
ill	-10.85
▁فلسفیوں	-10.8504
▁لوٹ	-10.8504
▁لائٹس	-10.8507
▁طرفہ	-10.8514
▁موم	-10.8516
▁سینٹرل	-10.852
▁کمائی	-10.8529
▁آیا۔	-10.8548
-16	-10.8548
ber	-10.855
▁کارکن	-10.8553
λ	-10.8553
▁اعمال	-10.8553
▁اپارٹمنٹ	-10.8553
▁تبادلے	-10.8553
▁تعاقب	-10.8553
▁شکایت	-10.8553
▁کنفیڈریٹ	-10.8553
▁وائلڈ	-10.8553
▁بھارت	-10.8554
▁شاذ	-10.8554
▁آجر	-10.8555
▁اڑنے	-10.8557
▁ریئل	-10.8559
▁1933	-10.856
▁ڈاون	-10.856
▁اٹھانے	-10.8561
▁1853	-10.8564
▁چارلز	-10.8565
سب	-10.8567
وکو	-10.8581
یلیا	-10.8587
▁ملنے	-10.8604
▁ڈوم	-10.8605
▁تیر	-10.8616
▁بلندی	-10.8624
▁بلو	-10.8628
▁برتن	-10.8646
▁ٹائی	-10.8649
فیر	-10.8652
▁مشیر	-10.8655
▁لتھوانیا	-10.8681
▁انسائیکلوپیڈیا	-10.8683
▁دعوے	-10.8683
▁غربت	-10.8683
▁نصاب	-10.8683
▁ورثہ	-10.8683
▁گورباچوف	-10.8683
▁مادری	-10.8683
▁گھیر	-10.8683
▁ٹھیک	-10.8684
▁سوڈان	-10.8684
▁جملہ	-10.8685
▁بیلجیم	-10.8685
▁ٹیکنک	-10.8687
▁1951	-10.8688
▁ہوگئیں۔	-10.8693
▁عہدہ	-10.8694
▁200،000	-10.8701
▁سرو	-10.8713
▁پہن	-10.8719
▁250	-10.8723
▁عقلی	-10.8737
جنگ	-10.8744
▁بریک	-10.8746
▁اش	-10.876
▁ریکارڈوں	-10.8783
▁ہاک	-10.8783
lu	-10.8789
▁ووٹوں	-10.8791
▁کینیڈی	-10.8806
▁کامکس	-10.881
▁ASCII	-10.8815
▁تجاوز	-10.8815
▁فیمیکوم	-10.8815
▁مسجد	-10.8815
▁ٹکڑوں	-10.8815
▁انصاف	-10.8815
▁جاسکتے	-10.8815
▁لڑکیوں	-10.8815
▁عصر	-10.8815
▁بالغوں	-10.8815
▁پیسے	-10.8816
▁کیپلا	-10.8818
▁فیملی	-10.8819
▁گلوبل	-10.8822
▁1848	-10.8828
▁سنبھالنے	-10.8828
▁لائے	-10.8829
▁میسنک	-10.883
▁پرائم	-10.8832
▁گلیشیئرز	-10.8834
▁فورم	-10.8838
▁پنکھوں	-10.8841
▁ماڈلز	-10.8842
▁میچوں	-10.8844
▁کاؤنٹر	-10.8855
▁49	-10.8857
▁سوٹ	-10.8857
▁بلا	-10.8883
▁بیکر	-10.8884
▁ماؤ	-10.8907
▁تہواروں	-10.8913
▁حفاظتی	-10.892
▁گلیشیئر	-10.8928
▁ٹینک	-10.8932
▁ارجنٹائن	-10.8948
▁لیورپول	-10.8948
▁مشاورت	-10.8948
▁ملائیشیا	-10.8948
▁پنسلوانیا	-10.8948
▁ایکسپریس	-10.8948
▁لاکھوں	-10.8948
▁ویٹیکن	-10.8948
▁کرافٹ	-10.8948
▁ٹیونز	-10.8949
▁برائن	-10.8949
▁دوستانہ	-10.895
▁ڈسٹنی	-10.8951
ولوجیکل	-10.8952
▁شاپنگ	-10.8954
▁دھاتی	-10.8959
▁ہیکٹر	-10.8963
▁ٹچ	-10.8968
▁لفٹیں	-10.898
▁رینک	-10.8982
▁لگائی	-10.8983
▁قدمی	-10.8984
پہلے	-10.9001
بورو	-10.9008
▁ملا۔	-10.9017
▁راہب	-10.9051
▁جیتے	-10.9059
▁سازوں	-10.9068
▁گھرا	-10.9077
▁اختلاف	-10.9079
▁ارادے	-10.9083
▁نقشہ	-10.9083
▁چڑیا	-10.9083
▁1907	-10.9083
▁پالرمو	-10.9083
▁ہمارے	-10.9083
▁میڈرڈ	-10.9084
▁مجرمانہ	-10.9084
▁خوراک	-10.9084
▁اٹھائے	-10.9085
▁پرامن	-10.9086
▁مائیکرو	-10.9086
▁سسلی	-10.9089
▁سرحدی	-10.9096
▁1855	-10.9096
▁برازیلیا	-10.9102
▁کریمیا	-10.9103
▁ایپی	-10.9103
▁روکتا	-10.9105
▁De	-10.9105
tes	-10.9106
▁بیج	-10.9118
▁راہ	-10.9122
▁میلان	-10.9135
لاطینی	-10.9149
▁بمبار	-10.915
▁پٹی	-10.9155
ans	-10.9166
▁ریفری	-10.9174
▁ہونی	-10.9176
▁میٹل	-10.918
▁دھاتوں	-10.9181
▁شاہ	-10.919
▁لینگ	-10.92
▁کیمیکل	-10.9202
▁800	-10.9202
کوپن	-10.9205
▁بانٹ	-10.9208
▁مالیکیول	-10.9209
▁حامل	-10.9212
مبا	-10.9215
▁میگا	-10.9217
▁عربوں	-10.9218
آرکیٹیکچر	-10.9219
ο	-10.922
▁اطمینان	-10.922
▁انفراسٹرکچر	-10.922
▁اونچے	-10.922
▁ایمسٹرڈیم	-10.922
▁شعبہ	-10.922
▁فیصلوں	-10.922
▁مراعات	-10.922
▁مشورے	-10.922
▁ٹکڑا	-10.922
▁پبلشر	-10.922
▁کھڑکی	-10.922
▁ہجوم	-10.922
▁فوربس	-10.922
▁دادا	-10.9221
▁نیپولین	-10.9221
▁آئرن	-10.9222
▁ہسٹری	-10.9222
▁آگاہ	-10.9222
لوجسٹ	-10.9223
▁ماپا	-10.9228
▁شرمن	-10.9229
▁اسٹیون	-10.9231
▁تنظیمیں	-10.9232
▁لوئی	-10.9238
▁گرڈ	-10.9255
▁نوعمروں	-10.9256
▁پلاٹ	-10.9261
▁تھامسن	-10.9265
▁سیاحتی	-10.9278
▁شہرت	-10.928
لیف	-10.929
▁ڈیوس	-10.9297
▁لنکن	-10.9299
▁کیریئرز	-10.9301
لورین	-10.9304
▁پیٹرک	-10.9309
▁گرفتاری	-10.931
▁شیک	-10.9324
▁اڑ	-10.9326
bo	-10.9336
▁170	-10.9357
ι	-10.9359
▁تحسین	-10.9359
▁جھنڈا	-10.9359
▁دائیں	-10.9359
▁سمفونی	-10.9359
▁مجسمے	-10.9359
▁محروم	-10.9359
▁مکوڑوں	-10.9359
▁کیمبرج	-10.9359
▁پروسیسر	-10.9359
▁اندوز	-10.9359
▁دراز	-10.9359
▁اوزار	-10.936
▁سبسڈی	-10.936
▁چاول	-10.936
▁فہم	-10.9361
▁جمناسٹکس	-10.9361
▁وارنر	-10.9364
▁PS	-10.9368
▁1871	-10.9369
لیکن	-10.9375
▁ہٹنے	-10.9376
▁موری	-10.938
wa	-10.9382
الک	-10.9389
▁سمجھا۔	-10.9399
▁استوا	-10.94
▁600	-10.9408
▁مزدور	-10.9439
ov	-10.9444
▁نوعمر	-10.9463
▁ماحولیات	-10.9476
▁ذیل	-10.9476
▁اسٹریم	-10.9493
▁کاؤنٹ	-10.9493
▁ضائع	-10.95
▁علامات	-10.95
▁ناپسندیدہ	-10.95
▁پیچیدگی	-10.95
▁خراج	-10.95
▁ایتھنز	-10.95
▁سراغ	-10.95
▁میکانکس	-10.95
▁خوشحال	-10.95
▁شریف	-10.95
▁اسکواڈرن	-10.95
▁ترجمان	-10.95
▁بائ	-10.9506
▁ورجن	-10.9506
▁واچ	-10.9507
▁توڑنے	-10.9508
▁ڈرم	-10.9512
▁ڈینس	-10.9516
▁تفصیلی	-10.9519
▁سڑکیں	-10.9523
▁اسکیل	-10.9533
▁درجن	-10.9537
▁کھال	-10.9558
▁کرانے	-10.956
▁ہورن	-10.9565
ard	-10.9568
▁گلیوں	-10.9571
ism	-10.9578
▁چیمپئنز	-10.9579
▁روٹر	-10.9579
▁تاروں	-10.9585
▁جلاوطنی	-10.9587
▁مارکیٹنگ	-10.9589
▁میدانوں	-10.959
حکومت	-10.9611
▁چوٹیوں	-10.9611
▁خریدی	-10.9625
▁انڈی	-10.9632
▁ہولڈ	-10.9643
▁بزرگ	-10.9643
▁طلاق	-10.9643
▁قحط	-10.9643
▁مہینہ	-10.9643
▁شیعہ	-10.9643
▁سککوں	-10.9643
▁قیاس	-10.9643
▁مہلک	-10.9643
▁پرجوش	-10.9643
▁بھاپ	-10.9644
▁سوان	-10.9644
▁خمیر	-10.9645
▁1921	-10.9648
▁فنگس	-10.9648
▁پہنے	-10.9651
▁تیرہ	-10.9653
▁مارجن	-10.9656
▁صفت	-10.9656
▁دیکھتا	-10.9662
▁ہیومن	-10.9665
▁حلف	-10.9667
▁منطقی	-10.9677
▁ہینڈل	-10.9681
▁پلانک	-10.9688
▁امکانات	-10.9691
▁کامل	-10.9692
پارٹ	-10.9694
▁مقررہ	-10.9701
▁Re	-10.9716
▁گولڈن	-10.9723
oc	-10.9729
▁ہلز	-10.973
▁میڈل	-10.9737
io	-10.9739
▁کرایا۔	-10.974
▁بلڈ	-10.9765
جیم	-10.9783
▁ایئرکرافٹ	-10.9788
▁بالادستی	-10.9788
▁جارحانہ	-10.9788
▁دعووں	-10.9788
▁سولہویں	-10.9788
▁طرازی	-10.9788
▁سویڈش	-10.9788
▁فخر	-10.9788
▁ہلاکتوں	-10.9788
▁فائٹر	-10.9788
▁لارنس	-10.9788
▁پروڈکٹ	-10.9788
▁ہیلنسٹک	-10.9788
▁لچکدار	-10.9788
/'	-10.9789
▁بستر	-10.979
▁پائن	-10.979
▁سیکھا	-10.9791
▁گاڑیاں	-10.9791
ریاس	-10.9798
▁ہلکی	-10.9799
▁مالیکیولر	-10.98
▁کلیسیا	-10.9802
▁نووا	-10.9804
▁لگے	-10.9807
▁ٹکٹ	-10.9808
▁کیمیکلز	-10.9809
▁ڈسٹ	-10.9811
بنگ	-10.982
▁کریک	-10.9823
▁نکالا	-10.9823
▁بمباروں	-10.9827
▁نشستوں	-10.9847
ینڈر	-10.9864
▁بارٹس	-10.9866
▁پھٹ	-10.987
ٹیج	-10.9884
▁دیوی	-10.99
▁بیلی	-10.9916
▁وارڈ	-10.9919
gu	-10.9925
لاؤ	-10.9929
▁باغی	-10.9933
▁تضاد	-10.9935
▁اطراف	-10.9935
▁انشورنس	-10.9935
▁برتری	-10.9935
▁تجریدی	-10.9935
▁دھماکہ	-10.9935
▁فیوژن	-10.9935
▁ماڈرن	-10.9935
▁معاوضہ	-10.9935
▁منجمد	-10.9935
▁کنزرویٹو	-10.9935
▁مارگریٹ	-10.9935
▁دودھ	-10.9935
▁فزکس	-10.9935
▁بیلاروس	-10.9935
▁کروشیا	-10.9936
▁اینڈریو	-10.9936
▁کاٹنے	-10.9938
▁چلائے	-10.9939
▁1928	-10.9939
▁1898	-10.9947
▁ارضیاتی	-10.9951
▁ہرٹز	-10.9954
▁پہچانا	-10.9956
▁وکٹر	-10.9965
فری	-10.9971
ver	-10.9978
▁بینکنگ	-10.998
▁جڑی	-10.9984
▁معماروں	-10.9997
AC	-11.0004
▁نیش	-11.0006
▁Ba	-11.0007
▁گرافک	-11.0018
▁Li	-11.0022
میک	-11.0041
▁سازش	-11.005
▁مائیک	-11.0057
▁سرگرم	-11.0058
▁چیٹ	-11.0062
▁جات	-11.0068
tt	-11.0071
ä	-11.0084
−	-11.0084
▁آئسوٹوپ	-11.0084
▁آکسائیڈ	-11.0084
▁تنصیب	-11.0084
▁کشیدگی	-11.0084
▁مرضی	-11.0084
▁کپڑوں	-11.0084
▁گوتم	-11.0084
▁الجھن	-11.0084
▁پھنس	-11.0085
▁دعا	-11.0086
▁ہارورڈ	-11.0086
▁کاپٹر	-11.0091
▁میڈیم	-11.0091
▁مادیت	-11.0094
▁سود	-11.0094
▁دلائی	-11.01
▁پہاڑیوں	-11.0105
▁ڈیلٹا	-11.0109
▁1850	-11.0116
میا	-11.0128
▁موٹی	-11.0134
▁بندوقوں	-11.0139
yl	-11.0148
▁متاثرین	-11.0153
▁پیئر	-11.0168
▁شیو	-11.0193
▁Se	-11.0196
▁دوستوں	-11.0204
▁66	-11.0204
▁لوپ	-11.0219
نون	-11.0221
ive	-11.0223
▁ڈھک	-11.0225
▁باؤ	-11.023
▁لکیر	-11.0232
▁واقف	-11.0233
ρ	-11.0236
▁اثنا	-11.0236
▁اعتدال	-11.0236
▁انٹارکٹک	-11.0236
▁جھنڈے	-11.0236
▁خوفزدہ	-11.0236
▁قیصر	-11.0236
▁لمیٹڈ	-11.0236
▁محاصرہ	-11.0236
▁پوشیدہ	-11.0236
▁ہنگامی	-11.0236
▁پلازہ	-11.0236
▁انخلا	-11.0236
▁گائیڈ	-11.0236
▁کیپیٹل	-11.0236
▁دوگنا	-11.0236
▁مورفولوجی	-11.0237
▁بیوہ	-11.0237
▁نیشنز	-11.0237
▁1908	-11.0239
▁ہارمون	-11.0239
▁دریں	-11.0239
▁ٹیلیفون	-11.0239
▁لوئر	-11.0243
▁کیپسیٹرز	-11.0246
▁عین	-11.0247
▁پینٹنگ	-11.0248
▁In	-11.0248
سابقہ	-11.0262
▁دستیابی	-11.0292
▁ہاورڈ	-11.0299
ry	-11.0308
▁رجحانات	-11.0311
▁منعقدہ	-11.0319
▁ہرن	-11.0322
▁سیلز	-11.0337
▁گناہ	-11.0338
▁فارمیٹس	-11.0339
▁جایا	-11.0339
▁کاسٹیل	-11.034
وجین	-11.0345
▁ڈچی	-11.0348
▁بائیوٹک	-11.0371
ه	-11.0389
▁استحصال	-11.0389
▁درحقیقت	-11.0389
▁رقبے	-11.0389
▁مدعو	-11.0389
▁مسیسیپی	-11.0389
▁مکانات	-11.0389
▁میتھوڈسٹ	-11.0389
▁نقاد	-11.0389
▁آڈیشن	-11.0389
▁مندرجہ	-11.0389
▁1854	-11.0389
▁بیداری	-11.039
▁بقا	-11.039
▁انسٹال	-11.039
▁پرجیوی	-11.039
▁سٹائن	-11.0391
▁دبانے	-11.0392
▁منیجر	-11.0392
▁ریاضیاتی	-11.0392
▁مبصرین	-11.0393
▁اشتہارات	-11.0393
▁سائمن	-11.0394
▁ایبیریا	-11.0394
▁شماریاتی	-11.0395
▁جوڑتی	-11.0395
▁بریوری	-11.0396
▁لٹل	-11.0396
▁پسندانہ	-11.0396
▁ضمنی	-11.0404
▁پڑے	-11.0405
▁رہیں	-11.0421
▁لاش	-11.0422
▁دیکھے	-11.0428
sp	-11.0428
پیدائش	-11.0431
غیر	-11.0434
▁بربر	-11.0443
▁سلیم	-11.0445
▁امام	-11.0446
▁پروڈکشنز	-11.0446
op	-11.0454
-5	-11.0456
▁درمیانے	-11.046
▁تل	-11.0461
▁لارڈز	-11.0463
وسکی	-11.0466
▁فلپس	-11.0467
du	-11.047
▁مالیت	-11.0473
▁سمندروں	-11.0493
▁پیٹرن	-11.0499
فت	-11.0513
فیلڈ	-11.0522
▁کرے۔	-11.0527
ς	-11.0546
▁capacitor	-11.0546
▁افسردگی	-11.0546
▁افقی	-11.0546
▁ایلومینیم	-11.0546
▁بخود	-11.0546
▁بلغاریہ	-11.0546
▁صوابدید	-11.0546
▁لمبے	-11.0546
▁مباحثے	-11.0546
▁پلائموتھ	-11.0546
▁اینلیڈس	-11.0546
▁ریزورٹ	-11.0546
▁آرکٹک	-11.0546
▁مجاز	-11.0546
▁نظریے	-11.0546
▁ہیرالڈ	-11.0546
▁علامتوں	-11.0549
▁ایڈیسن	-11.0549
▁گونج	-11.055
ana	-11.055
▁1932	-11.0554
▁AD	-11.0554
▁فوت	-11.0556
ff	-11.0559
▁ملٹری	-11.0561
▁آپشن	-11.0561
▁جماعتیں	-11.0562
▁ڈومینک	-11.0566
▁چٹانوں	-11.0571
▁فلسطین	-11.0571
com	-11.0574
5)	-11.0579
▁وائن	-11.0583
▁سیزر	-11.0589
▁جیتا۔	-11.0593
▁یونٹوں	-11.0594
▁آبی	-11.0594
▁رہن	-11.0604
▁اسٹیپ	-11.0608
کیم	-11.061
بلز	-11.0614
▁فریڈم	-11.0617
▁بیمار	-11.0619
▁122	-11.0621
▁اپنایا۔	-11.0625
▁ترکوں	-11.0636
▁لیول	-11.0637
ٹینا	-11.0645
▁شارٹ	-11.0658
▁سیاستدان	-11.0667
▁مائن	-11.0667
su	-11.0678
گول	-11.0689
*	-11.0704
▁Schwarzenegger	-11.0704
▁اجارہ	-11.0704
▁احاطے	-11.0704
▁اکنامک	-11.0704
▁تجزیے	-11.0704
▁محیط	-11.0704
▁مراٹھا	-11.0704
▁کمپیوٹنگ	-11.0704
▁یادداشت	-11.0704
▁آبدوز	-11.0704
▁ادراک	-11.0704
1،000	-11.0704
▁انٹرسٹیٹ	-11.0704
▁کرائے	-11.0705
▁سندھ	-11.0705
▁وارث	-11.0706
▁ڈیوٹی	-11.0706
▁پالتو	-11.0707
▁بلایا	-11.0718
▁اداکارہ	-11.0721
▁حسین	-11.0722
▁بریڈ	-11.0723
▁گلوکارہ	-11.0725
▁ریڈار	-11.0727
za	-11.0733
▁30،000	-11.0733
▁سروسز	-11.0744
ھو	-11.0746
▁بیجوں	-11.0749
▁کامیڈی	-11.0751
ev	-11.0752
▁سچ	-11.0762
▁فش	-11.0764
▁فیکٹریوں	-11.0764
pr	-11.0836
▁کہانیوں	-11.0838
▁خودمختار	-11.0841
▁لوگو	-11.0844
▁چوٹ	-11.0851
▁XXIII	-11.0866
▁احمد	-11.0866
▁اعضاء	-11.0866
▁افلاطون	-11.0866
▁اپوزیشن	-11.0866
▁بالواسطہ	-11.0866
▁تشہیر	-11.0866
▁تفتیش	-11.0866
▁عجائب	-11.0866
▁لطیفہ	-11.0866
▁ماتحت	-11.0866
▁متوازن	-11.0866
▁متوسط	-11.0866
▁مقالے	-11.0866
▁کیٹالان	-11.0866
▁پٹریوں	-11.0866
▁فروش	-11.0866
▁مقدونیائی	-11.0866
▁کلوگرام	-11.0867
▁کرسمس	-11.0868
▁ہائپر	-11.0869
▁تاریک	-11.0869
▁حساسیت	-11.0869
▁موزیکوں	-11.087
▁ٹائٹو	-11.0873
▁سرگرمیاں	-11.0875
▁جائزے	-11.0876
▁1857	-11.0878
▁رپورٹس	-11.0884
▁ڈیموکریٹس	-11.0885
▁کلچر	-11.0885
ris	-11.0887
▁نوشی	-11.0888
▁گزارا	-11.0888
▁Po	-11.0889
▁مظاہروں	-11.0893
▁20،000	-11.0894
▁حالتوں	-11.0911
▁سلور	-11.0911
▁کرکٹ	-11.0912
▁وائڈ	-11.0918
▁بھیجی	-11.0924
▁ڈویژنوں	-11.0926
▁جلاوطن	-11.0929
▁(13	-11.0937
▁ڈرائیور	-11.094
▁ٹینس	-11.0952
امریکی	-11.0958
▁بنتے	-11.0976
▁ترجیحی	-11.0979
▁جوڑی	-11.098
▁پیرو	-11.0987
▁فیم	-11.0991
der	-11.1002
US	-11.1005
▁تاثر	-11.1007
▁سیلون	-11.1016
انٹو	-11.1022
▁شاہراہ	-11.103
!	-11.103
æ	-11.103
▁اسٹینڈرڈ	-11.103
▁برانچ	-11.103
▁تبصرے	-11.103
▁تعصب	-11.103
▁تمباکو	-11.103
▁خلاصہ	-11.103
▁مدرسوں	-11.103
▁ممالیہ	-11.103
▁ہیمپشائر	-11.103
▁زیلڈا	-11.103
▁کارپوریٹ	-11.103
▁وائلن	-11.103
▁ریشوں	-11.103
▁فادر	-11.103
▁دیہات	-11.1031
▁جڑواں	-11.1031
▁درستگی	-11.1033
▁جارجیائی	-11.1033
▁ٹیکنیکل	-11.1036
▁زہر	-11.104
vo	-11.1045
▁پھیلانے	-11.1046
▁2.0	-11.1047
▁St	-11.1048
▁40،000	-11.1049
▁1865	-11.1049
▁1.2	-11.1051
▁ووٹرز	-11.1053
EC	-11.1054
▁شاخیں	-11.1063
▁میکرو	-11.1076
▁یارڈ	-11.1088
▁ٹونی	-11.109
▁جانتے	-11.1102
▁ہس	-11.1112
▁فریڈی	-11.1114
▁تیس	-11.112
▁حریفوں	-11.113
▁نیوٹن	-11.1146
▁ایڈم	-11.1151
ko	-11.1155
▁130	-11.1156
bu	-11.1161
▁آئیں	-11.1164
▁ڈیموکریٹ	-11.1167
▁ڈسکو	-11.1175
▁کمیونیکیشن	-11.1176
▁رینڈ	-11.1184
▁اعلامیہ	-11.1196
▁تسلط	-11.1196
▁تناظر	-11.1196
▁رواداری	-11.1196
▁ریگولیٹری	-11.1196
▁عملدرآمد	-11.1196
▁قلعوں	-11.1196
▁مسودہ	-11.1196
▁نفرت	-11.1196
▁ٹیکسٹائل	-11.1196
▁چاہے	-11.1196
▁گھوڑوں	-11.1196
▁کرسچن	-11.1196
▁الہام	-11.1196
▁خادم	-11.1196
▁مرمت	-11.1196
▁کارٹون	-11.1197
▁پیکیج	-11.1198
▁ٹشو	-11.1198
▁مظاہرے	-11.1202
▁خرید	-11.1204
▁فریقین	-11.1206
▁گزرتا	-11.1206
فریڈ	-11.1206
▁مونرو	-11.1212
▁ورتھ	-11.1217
▁گیٹس	-11.1223
▁جوہان	-11.1226
▁علامتی	-11.1233
▁میسی	-11.1255
▁شپنگ	-11.1255
▁لایا۔	-11.1268
▁اسٹرا	-11.1272
▁قبرصی	-11.1279
▁پیوس	-11.128
▁اپر	-11.1285
ja	-11.1301
▁الیکٹر	-11.1304
▁سرحدیں	-11.1307
▁گوڈ	-11.1316
جدید	-11.1324
▁صد	-11.133
▁مضافات	-11.1341
▁کمیونسٹوں	-11.1349
▁عبد	-11.1353
▁تجاویز	-11.1366
▁تمغہ	-11.1366
▁تنہائی	-11.1366
▁دائمی	-11.1366
▁مراقبہ	-11.1366
▁مکوڑے	-11.1366
▁پیتھوجین	-11.1366
▁چہرے	-11.1366
▁آذربائیجان	-11.1366
▁خروش	-11.1366
▁ٹووالو	-11.1366
▁ملبوس	-11.1366
▁جمالیات	-11.1366
▁حلقوں	-11.1366
▁اسٹیورٹ	-11.1366
▁خاموش	-11.1366
▁معافی	-11.1367
▁اینٹوں	-11.1367
▁1916	-11.1371
▁پکڑنے	-11.1372
▁جلانے	-11.1373
▁لگاتے	-11.1375
▁1839	-11.138
▁قیدی	-11.1383
▁سیریل	-11.1389
▁بھرا	-11.1394
▁پارش	-11.1405
▁مشنریوں	-11.142
▁ایپس	-11.1422
▁سیکٹر	-11.1425
▁تحفظات	-11.1434
▁فلائی	-11.1452
▁شک	-11.1488
▁ملی۔	-11.1492
tion	-11.1493
▁یونٹس	-11.1499
▁سیونگ	-11.15
▁سوگ	-11.1511
▁عثمان	-11.1511
▁ڈاکٹروں	-11.1513
▁جینیات	-11.1514
▁سواری	-11.1525
روگ	-11.1532
فیکٹ	-11.1536
κ	-11.1538
▁اوہائیو	-11.1538
▁عطیات	-11.1538
▁نعرہ	-11.1538
▁ڈسپلے	-11.1538
▁ہماچل	-11.1538
▁آپٹیکل	-11.1538
▁کنواری	-11.1538
▁کلنٹن	-11.1538
▁اسکالرشپ	-11.1539
▁جھوٹ	-11.1539
▁سیلولر	-11.154
▁پرنسپل	-11.1541
▁1903	-11.1542
▁ریڈیکل	-11.1544
▁بھگ	-11.1553
▁پابندیاں	-11.1553
▁1836	-11.1553
▁1875	-11.1554
▁ٹرنر	-11.1554
▁ہماری	-11.1555
▁روزہ	-11.1565
▁To	-11.1566
ایف	-11.1581
▁بچہ	-11.1585
▁رش	-11.1587
▁ہیرا	-11.1591
▁ویٹو	-11.1647
▁عراقی	-11.1651
▁کلین	-11.1656
▁ہیلن	-11.1675
▁فکر	-11.1695
°	-11.1705
امین	-11.1707
▁الخط	-11.1714
▁امتزاج	-11.1714
▁تقلید	-11.1714
▁سکندر	-11.1714
▁فرنیچر	-11.1714
▁فریکوئنسی	-11.1714
▁مہاکاوی	-11.1714
▁پولرائزیشن	-11.1714
▁ہضم	-11.1714
8،000	-11.1714
▁ایکسچینج	-11.1714
▁گالیشیا	-11.1714
▁1901	-11.1714
▁البلد	-11.1714
▁اسٹڈیز	-11.1714
▁اسپیشل	-11.1714
▁کراؤن	-11.1714
▁مکانی	-11.1714
▁کلینیکل	-11.1714
▁کیوبسٹ	-11.1714
▁نیلسن	-11.1715
▁راجر	-11.1715
▁جھلی	-11.1715
▁پرورش	-11.1715
▁انتونیو	-11.1716
▁سفیر	-11.1716
▁1923	-11.1719
▁ٹرومن	-11.1719
▁متغیرات	-11.172
▁ہمیں	-11.1721
▁بھرپور	-11.1722
▁رویہ	-11.1724
▁الٹرا	-11.1725
▁پاتھ	-11.1727
0.8	-11.1733
▁آنکھوں	-11.1741
▁کھوج	-11.1744
▁امیج	-11.1752
▁چلی	-11.1757
▁ڈالا۔	-11.1769
▁خور	-11.1772
AT	-11.1774
▁شار	-11.1842
▁تکنیکوں	-11.1855
▁پیشرو	-11.1867
per	-11.1872
▁رنر	-11.188
▁افسانے	-11.1892
▁جعلی	-11.1892
▁جیواشم	-11.1892
▁زرخیز	-11.1892
▁صفحات	-11.1892
▁فرائض	-11.1892
▁مجسٹریٹ	-11.1892
▁معائنہ	-11.1892
▁یونیفارم	-11.1892
▁کچل	-11.1892
▁پتیوں	-11.1892
▁چھلانگ	-11.1892
▁پورٹیبل	-11.1892
▁مسمار	-11.1892
▁چکے	-11.1893
▁گورننگ	-11.1893
▁1935	-11.1898
▁محرکات	-11.19
▁فوجیں	-11.1902
▁لیکچرز	-11.1906
▁رسول	-11.1909
▁نبی	-11.1912
▁قبولیت	-11.1913
▁ویلتھ	-11.1916
▁ٹاک	-11.193
▁مہر	-11.193
▁گاہیں	-11.1934
▁ہیگل	-11.1937
▁ناگ	-11.1939
ڈونگ	-11.1948
▁اسٹارٹ	-11.1953
▁اداکاروں	-11.1975
▁نسلیں	-11.1986
▁گیلن	-11.1995
الیا	-11.2002
▁خانقاہوں	-11.2005
▁ایڈز	-11.2011
▁ڈریک	-11.2015
300	-11.2027
▁گلڈ	-11.2041
▁پھیلی	-11.2056
▁فاؤنڈ	-11.2072
NES	-11.2074
ɛ	-11.2074
▁البانیہ	-11.2074
▁انٹرپرائز	-11.2074
▁اچانک	-11.2074
▁جارحیت	-11.2074
▁طباعت	-11.2074
▁فتوحات	-11.2074
▁ٹرانسکرپشن	-11.2074
▁کوالیفائی	-11.2074
▁ہمسایہ	-11.2074
▁پکچرز	-11.2074
▁بینجمن	-11.2074
▁لیجنڈ	-11.2074
▁دراصل	-11.2074
▁مبہم	-11.2074
▁کوئلے	-11.2074
▁انرجی	-11.2074
▁ترسیل	-11.2074
▁کپتان	-11.2075
▁مکھی	-11.2075
▁کنٹینر	-11.2075
▁وائرلیس	-11.2075
▁کرنل	-11.2076
▁اسپرنگ	-11.2078
▁فنانس	-11.208
▁باغات	-11.2082
▁بولتا	-11.2082
▁تھور	-11.2084
▁ٹوٹنے	-11.2084
▁موشن	-11.2085
▁سبزیوں	-11.2085
▁گروو	-11.2087
▁1837	-11.2088
▁سمجھے	-11.2089
▁چلاتی	-11.2091
▁ریلیف	-11.2094
▁1810	-11.2094
▁بروز	-11.2105
▁لائسنسنگ	-11.2115
▁مرسی	-11.2121
▁ہوئیں۔	-11.2124
▁اکاؤنٹس	-11.2124
▁رال	-11.2146
be	-11.2148
▁تصوراتی	-11.2156
▁مزاحم	-11.2158
▁پلانٹس	-11.216
▁خوشی	-11.2162
▁جڑوں	-11.2167
▁کلید	-11.2176
▁ڈپول	-11.2178
▁کریٹ	-11.218
▁تفصیل	-11.223
▁پنکھ	-11.2231
مانی	-11.2236
▁پیپر	-11.2257
▁گہرا	-11.2257
ولیتھک	-11.2259
▁اناطولیہ	-11.2259
▁ایڈمنسٹریشن	-11.2259
▁بیسیلیکا	-11.2259
▁ذائقہ	-11.2259
▁ضابطے	-11.2259
▁عرصہ	-11.2259
▁قزاقوں	-11.2259
▁قزاقی	-11.2259
▁قفقاز	-11.2259
▁مہنگا	-11.2259
▁نوزائیدہ	-11.2259
▁چائنا	-11.2259
▁کفالت	-11.2259
▁احیا	-11.2259
▁طبقہ	-11.2259
▁ناکافی	-11.2259
▁کولمبس	-11.2259
▁1904	-11.2259
▁رونالڈ	-11.2259
▁خطرات	-11.2259
▁دوہری	-11.226
▁ڈینیوب	-11.226
▁لپیٹ	-11.226
▁پردیش	-11.226
▁کیپٹل	-11.2261
▁نجات	-11.2261
▁غار	-11.2261
▁بلیوارڈ	-11.2262
▁لڑاکا	-11.2264
▁گوگل	-11.2265
▁ریفارمڈ	-11.2265
▁پتے	-11.2269
-8	-11.227
▁کٹائی	-11.2271
▁بندوقیں	-11.2274
▁3.5	-11.2292
▁لیوس	-11.2294
▁کمایا	-11.2306
ریکس	-11.231
▁سرکٹس	-11.2317
▁فنکشنل	-11.2322
▁گیمنگ	-11.2328
▁کھیلتا	-11.2335
▁ڈول	-11.2339
▁پوسٹل	-11.2344
▁ریب	-11.2348
▁سستی	-11.2356
▁صفر	-11.2363
NA	-11.2372
▁اربن	-11.2372
▁لگی	-11.2408
پیرس	-11.2418
▁تغیر	-11.2441
▁موزائیک	-11.2448
کانٹینینٹل	-11.2448
▁انکارپوریٹڈ	-11.2448
▁بدامنی	-11.2448
▁ترجمے	-11.2448
▁خوشگوار	-11.2448
▁پروموشن	-11.2448
▁پرکشش	-11.2448
▁گنبد	-11.2448
▁خزانہ	-11.2448
▁انتھونی	-11.2448
▁نامکمل	-11.2448
▁جنیوا	-11.2448
▁ٹلسا	-11.2449
▁ڈیجیمون	-11.2449
▁رائفل	-11.2449
▁گراہم	-11.2449
▁آپریٹر	-11.245
▁نوکری	-11.245
▁ڈربی	-11.2452
▁ٹرانسفر	-11.2452
▁ہیمبرگ	-11.2454
▁امیاد	-11.2456
▁تھرو	-11.2457
▁سینسر	-11.2461
▁1882	-11.2462
▁اتھانیسس	-11.2462
▁فلٹر	-11.2472
▁اہلکاروں	-11.2473
▁انڈیز	-11.2475
▁سربراہان	-11.248
▁Ka	-11.2487
▁میسنز	-11.249
▁نکات	-11.249
▁سانتا	-11.2498
▁Sh	-11.2499
▁برتنوں	-11.2502
پالی	-11.2505
اگرچہ	-11.2514
▁کک	-11.2515
موجودہ	-11.2515
▁عبوری	-11.252
ica	-11.2537
▁کامنز	-11.2541
▁ساکھ	-11.2545
▁پراگ	-11.2546
▁آوازیں	-11.2555
AS	-11.2568
▁Bo	-11.2574
▁ٹریس	-11.2583
lle	-11.2583
▁ہنر	-11.2616
▁ایلیٹ	-11.2622
▁ہوگئیں	-11.263
▁لینس	-11.2635
▁صوفی	-11.264
▁آدھی	-11.264
▁اسٹیبلشمنٹ	-11.264
▁ایمرجنسی	-11.264
▁ذرات	-11.264
▁مطلع	-11.264
▁مفروضے	-11.264
▁مہنگے	-11.264
▁پبلشنگ	-11.264
▁پختہ	-11.264
▁ڈھول	-11.264
▁ہیلینسٹک	-11.264
▁تھراپی	-11.264
▁1849	-11.264
▁اسپانسر	-11.264
▁بیچلر	-11.264
▁ڈائمنڈ	-11.264
▁ہجے	-11.264
▁1815	-11.264
▁بوائے	-11.264
▁1842	-11.264
▁سڈنی	-11.264
▁نااہل	-11.264
▁رجمنٹ	-11.264
▁شارلٹ	-11.2641
▁مخطوطات	-11.2641
▁کوئنز	-11.2642
▁جادوگر	-11.2642
▁آرکیڈ	-11.2642
▁تھرڈ	-11.2643
▁شبہات	-11.2644
▁منع	-11.2645
▁لاء	-11.2646
▁بھاگنے	-11.2649
▁جل	-11.2651
▁شیلیوں	-11.2651
▁ولسن	-11.2652
▁1872	-11.2654
▁1847	-11.2654
▁جاسوسی	-11.2656
▁آسکر	-11.2662
▁Ar	-11.2664
▁ایڈمز	-11.2667
▁انکوڈر	-11.2667
▁فیچر	-11.2668
▁شے	-11.2668
▁اکائیوں	-11.2671
میٹک	-11.2683
▁لینن	-11.2701
▁ہڈ	-11.272
بیو	-11.2721
جرمن	-11.2742
▁بیٹل	-11.2746
،500	-11.2749
ایچ	-11.2783
▁پگ	-11.2783
▁Le	-11.2806
▁ڈویلپر	-11.2816
وئٹ	-11.2823
▁مشترک	-11.2828
▁اردن	-11.2834
ü	-11.2836
ε	-11.2836
▁استثنیٰ	-11.2836
▁برادرز	-11.2836
▁تھوڑی	-11.2836
▁ثقل	-11.2836
▁حادثات	-11.2836
▁سنگاپور	-11.2836
▁لنکاشائر	-11.2836
▁مفروضہ	-11.2836
▁پندرہ	-11.2836
▁کریٹاسیئس	-11.2836
▁کھدائی	-11.2836
▁ہوجائیں	-11.2836
▁تیرہویں	-11.2836
▁سجایا	-11.2836
▁کمپوزر	-11.2836
▁ٹریاسک	-11.2836
▁کمیونزم	-11.2836
▁مراکش	-11.2836
▁وقار	-11.2836
▁کارٹریج	-11.2836
▁کمپریس	-11.2837
▁وڈیو	-11.2838
▁آگسٹین	-11.2839
▁دلائل	-11.2839
▁دبایا	-11.284
▁برنارڈ	-11.2842
▁رومانس	-11.2847
▁صفات	-11.2848
▁موج	-11.2854
▁کمیونیکیشنز	-11.286
▁فکری	-11.2864
]؛	-11.2868
▁پہنچانے	-11.2869
▁1400	-11.287
▁سنائی	-11.2877
▁حرف	-11.2883
▁سویٹ	-11.2885
▁قبرصیوں	-11.289
▁ایگل	-11.289
▁پلیئرز	-11.2894
▁عدالتیں	-11.2915
▁ریجنٹ	-11.292
ju	-11.2954
▁سونپ	-11.2989
▁آنا	-11.3014
گوا	-11.3025
ٹونک	-11.303
▁استقبال	-11.3035
▁افسانوں	-11.3036
▁الگورتھم	-11.3036
▁بدسلوکی	-11.3036
▁تخمینے	-11.3036
▁خلیفہ	-11.3036
▁سامراجی	-11.3036
▁مدرسہ	-11.3036
▁مستثنیٰ	-11.3036
▁میگاواٹ	-11.3036
▁قسط	-11.3036
▁ناروے	-11.3036
9،000	-11.3036
▁1915	-11.3036
▁دوپہر	-11.3036
▁پیڈمونٹ	-11.3036
▁خودکشی	-11.3036
▁مسخ	-11.3038
▁گورڈن	-11.304
▁سوترا	-11.304
▁ڈریگن	-11.304
▁رجسٹریشن	-11.3041
▁بھوک	-11.3042
▁ووٹروں	-11.3042
▁جیفری	-11.3043
▁ہالینڈ	-11.3045
mon	-11.3047
▁پروٹسٹنٹزم	-11.3049
▁شوگر	-11.3064
▁1820	-11.3072
▁تکرار	-11.3077
/؛	-11.3078
▁گولف	-11.3092
▁ہک	-11.3095
9,	-11.3109
▁مائنر	-11.311
▁ماؤس	-11.3113
▁Sch	-11.3138
▁فلک	-11.3156
▁ہنس	-11.317
▁بخار	-11.3236
▁Twilight	-11.324
▁الاباما	-11.324
▁انکوائری	-11.324
▁سعودی	-11.324
▁ورثے	-11.324
▁بیپٹسٹ	-11.324
▁رومانیہ	-11.324
▁وٹامن	-11.324
▁اسپیکٹر	-11.324
▁سیرامک	-11.324
▁پارٹنر	-11.3241
▁لڑکے	-11.3241
▁ولیج	-11.3242
▁گھنے	-11.3242
▁شفٹ	-11.3242
▁سنڈے	-11.3244
▁ٹاسک	-11.3244
▁ہستی	-11.3244
▁برکلے	-11.3244
▁مخلوقات	-11.3244
▁اسٹیمپ	-11.3245
▁گلے	-11.3247
▁ایبٹ	-11.3247
▁25،000	-11.3253
▁اتنے	-11.3253
▁ہلکا	-11.3254
▁پیٹرو	-11.3275
▁بارود	-11.3276
▁ڈیوائسز	-11.3286
▁سیاستدانوں	-11.3288
▁میٹرکس	-11.3301
بورن	-11.3319
▁پاول	-11.3386
▁بروس	-11.3388
بنیادی	-11.3395
uk	-11.3424
▁ذات	-11.3426
اصل	-11.343
▁مماثل	-11.3442
ó	-11.3449
▁القاعدہ	-11.3449
▁انزائم	-11.3449
▁دواسازی	-11.3449
▁سازوسامان	-11.3449
▁فکسچر	-11.3449
▁لیوپولڈ	-11.3449
▁مطالبات	-11.3449
▁نوادرات	-11.3449
▁ڈیفالٹ	-11.3449
▁کیٹالونیا	-11.3449
▁گفتگو	-11.3449
▁یونیسکو	-11.3449
▁سراہا	-11.3449
▁خواب	-11.3449
▁سرکلر	-11.3449
▁ڈیویڈ	-11.3449
▁تلوار	-11.3449
▁مزار	-11.345
▁شکوک	-11.3451
▁وکیل	-11.3451
▁تالیف	-11.3451
▁کیمرون	-11.3452
▁عزم	-11.3453
▁1905	-11.3453
▁واٹسن	-11.3455
▁براڈکاسٹنگ	-11.3455
▁دکھاتے	-11.3455
▁گوانگ	-11.3457
▁کھائی	-11.3458
▁ڈیبیو	-11.3466
▁منزلہ	-11.3471
▁1825	-11.3472
▁1878	-11.3473
ical	-11.3474
▁تاثرات	-11.3477
▁پھیلنے	-11.348
▁تانگ	-11.3483
▁ٹوپی	-11.3484
گرین	-11.3495
▁سائیکلنگ	-11.3502
▁ٹیمپل	-11.3505
▁1200	-11.3517
▁بھرنے	-11.3524
▁1600	-11.3567
▁ڈریم	-11.3569
ST	-11.3569
▁ریپر	-11.3583
▁اشتہار	-11.3603
▁مریض	-11.3625
ھم	-11.3625
▁انگلی	-11.3646
1.9	-11.3657
▁پگھل	-11.3658
▁آٹوموبائل	-11.3661
▁اکیسویں	-11.3661
▁حادثے	-11.3661
▁دانشورانہ	-11.3661
▁رابطوں	-11.3661
▁سپانسر	-11.3661
▁شعلہ	-11.3661
▁طحالب	-11.3661
▁مدرسے	-11.3661
▁پھیپھڑوں	-11.3661
▁چیواہوا	-11.3661
▁کارخانہ	-11.3661
▁ہنگامہ	-11.3661
▁یوٹریچٹ	-11.3661
▁خاکہ	-11.3661
▁زاویہ	-11.3661
▁گالیشین	-11.3661
▁آرنلڈ	-11.3662
▁ہوچکا	-11.3662
▁مرجان	-11.3662
▁سیمینار	-11.3662
▁ویدک	-11.3662
▁مبارک	-11.3662
▁ریشم	-11.3662
▁مترجم	-11.3662
▁استاد	-11.3663
▁منچوریا	-11.3663
▁جوبلی	-11.3663
▁باندھ	-11.3664
▁فشاں	-11.3664
▁کروشین	-11.3664
▁ضمیر	-11.3666
▁سنٹر	-11.3668
▁نسبیت	-11.3669
▁15،000	-11.3672
▁بچاؤ	-11.3673
▁کریول	-11.3673
▁انتون	-11.3674
▁السیس	-11.3676
▁مشیل	-11.3677
▁جادو	-11.3678
ٹیبل	-11.368
▁راجرز	-11.3691
▁ٹرک	-11.3705
▁بدنامی	-11.3706
▁دیکھنا	-11.3709
▁زبردستی	-11.3709
▁برطرفی	-11.3727
▁جدیدیت	-11.373
3.2	-11.3739
▁پیکٹ	-11.3824
▁شم	-11.3835
▁کلون	-11.3836
▁ارضیات	-11.3854
▁ربی	-11.387
▁مبصر	-11.3875
جیانگ	-11.3876
▁XII	-11.3879
▁افراط	-11.3879
▁بیلجئیم	-11.3879
▁تجزیاتی	-11.3879
▁شعاع	-11.3879
▁شلاچٹا	-11.3879
▁مذکورہ	-11.3879
▁نوشتہ	-11.3879
▁وکٹورین	-11.3879
▁کرسٹوفر	-11.3879
▁گزرگاہ	-11.3879
▁ہبسبرگ	-11.3879
▁ہولوکاسٹ	-11.3879
=	-11.3879
▁جتنا	-11.3879
▁فلائنگ	-11.3879
▁مہنگی	-11.3879
▁ریچرڈ	-11.3879
▁فلاح	-11.3879
▁ڈینیئل	-11.3879
▁ٹوالو	-11.3879
▁ڈونلڈ	-11.3879
▁کاشتکاری	-11.388
▁مائکروفون	-11.388
▁ٹوکری	-11.3881
▁لٹکا	-11.3881
▁مینڈیٹ	-11.3881
▁پیٹریاٹ	-11.3881
▁کشمیر	-11.3882
▁ڈاکٹریٹ	-11.3882
▁اورلینز	-11.3883
▁ریوڑ	-11.3883
▁امینو	-11.3884
▁پچاس	-11.3885
▁کھایا	-11.389
▁ثالثی	-11.3894
بہت	-11.3895
▁ناتھ	-11.3895
▁ڈویلپرز	-11.3901
▁3.0	-11.3902
▁مرغیوں	-11.3904
▁2500	-11.3906
▁235	-11.3909
▁کاغذات	-11.3912
▁بابل	-11.392
▁کلسٹر	-11.3924
▁شاپ	-11.3931
▁ملایا	-11.3931
ide	-11.3984
qui	-11.399
▁مظاہر	-11.4044
▁مخلوق	-11.4097
▁128	-11.4097
▁رضاکاروں	-11.4101
▁سیرکیڈین	-11.4101
▁فرڈینینڈ	-11.4101
▁لہجے	-11.4101
▁مجموعوں	-11.4101
▁معاشرہ	-11.4101
▁معذور	-11.4101
▁مونٹیویڈیو	-11.4101
▁پچھلی	-11.4101
▁چوڑائی	-11.4101
▁کاتالونیا	-11.4101
▁گورنمنٹ	-11.4101
è	-11.4101
▁میتھیو	-11.4101
▁ہائبرڈ	-11.4101
▁تھنڈر	-11.4101
▁نیچرل	-11.4101
▁بٹالین	-11.4101
▁سرورق	-11.4101
صفحہ	-11.4101
▁بینڈوتھ	-11.4101
▁شیطان	-11.4101
▁یوٹاہ	-11.4101
▁سرجری	-11.4101
▁ٹنگسٹن	-11.4101
▁جوائنٹ	-11.4101
▁پیشکش	-11.4101
▁افیون	-11.4101
▁ملحد	-11.4102
▁کمپاس	-11.4102
▁سیفٹی	-11.4102
▁خبردار	-11.4103
▁دادی	-11.4103
▁شکنی	-11.4106
▁چلتے	-11.4107
▁بوسنیا	-11.4107
▁ٹیبلٹ	-11.4108
Zn	-11.411
▁Ta	-11.411
▁بازاری	-11.4114
▁رخ	-11.4118
▁گزارے	-11.4119
▁مویشیوں	-11.412
▁فاتحین	-11.4122
▁1833	-11.4124
▁1.1	-11.4129
▁ویلیم	-11.4142
2010	-11.4143
▁اشتہاری	-11.4158
▁کمرہ	-11.4166
▁ایکویٹی	-11.4191
▁بودھی	-11.4199
ger	-11.4212
1.8	-11.4212
ven	-11.4223
▁لیمب	-11.4227
▁Ne	-11.4231
▁پونٹی	-11.4231
▁ٹائل	-11.4261
▁فلسطینی	-11.4291
▁الما	-11.4308
▁ٹیکنیک	-11.432
▁گلوب	-11.432
%	-11.4328
▁ابراہیم	-11.4328
▁استعفے	-11.4328
▁دستکاری	-11.4328
▁عددی	-11.4328
▁قصبہ	-11.4328
▁مذاق	-11.4328
▁معقول	-11.4328
▁منتظمین	-11.4328
▁میکنٹوش	-11.4328
▁نقشے	-11.4328
▁چاہتی	-11.4328
▁کنندگان	-11.4328
▁1906	-11.4328
▁اجرت	-11.4328
▁اسماعیل	-11.4328
▁لٹویا	-11.4328
▁محنت	-11.4328
▁مرحوم	-11.4328
▁گارنیشن	-11.4328
▁خیمہ	-11.4328
▁بہادر	-11.4328
▁پرائیویٹ	-11.4329
▁بالکان	-11.4329
▁چھڑی	-11.4329
▁آریائی	-11.4329
▁پیتل	-11.4329
▁منانے	-11.433
▁بلوط	-11.433
ther	-11.4332
▁بخارات	-11.4333
▁سیلٹک	-11.4336
▁آنکھیں	-11.4336
▁نواز	-11.4338
▁500،000	-11.4339
▁ہارپر	-11.434
▁کندہ	-11.4344
▁1776	-11.4344
▁1838	-11.4351
▁جنکشن	-11.4351
▁پوتے	-11.4353
کبھی	-11.4359
▁بائٹ	-11.4364
▁سوئی	-11.4368
▁رہنا	-11.4373
▁پلگ	-11.4383
▁میرٹ	-11.4443
je	-11.4462
▁روبی	-11.448
▁چاک	-11.4507
امہ	-11.4508
▁چٹان	-11.4525
▁اکائی	-11.4528
▁کمپن	-11.4532
▁Ju	-11.4533
▁شبہ	-11.4559
qu	-11.4561
▁PAL	-11.4561
▁اوبلاست	-11.4561
▁اولمپیا	-11.4561
▁بسمارک	-11.4561
▁بصیرت	-11.4561
▁تخمینوں	-11.4561
▁ذیابیطس	-11.4561
▁قالین	-11.4561
▁قاہرہ	-11.4561
▁قبیلہ	-11.4561
▁مبذول	-11.4561
▁مجوزہ	-11.4561
▁محتاط	-11.4561
▁معتدل	-11.4561
▁موسیٰ	-11.4561
▁نظارہ	-11.4561
▁چوراہے	-11.4561
▁خوفناک	-11.4561
▁جہتی	-11.4561
▁فارچون	-11.4561
▁نمٹا	-11.4561
▁نفیس	-11.4561
▁ڈگلس	-11.4561
▁ورجیل	-11.4561
▁مادوں	-11.4561
▁کررہی	-11.4561
▁یریوان	-11.4561
▁آفتاب	-11.4561
▁چالیس	-11.4561
▁سنتھیس	-11.4561
▁صوفیانہ	-11.4562
▁سازگار	-11.4563
▁کسٹمر	-11.4563
▁فارورڈ	-11.4564
▁چودہ	-11.4565
▁ہولڈرز	-11.4565
▁جنریٹر	-11.4568
▁مورگن	-11.457
▁کہانیاں	-11.4571
▁ابھرتی	-11.4573
▁MP	-11.4573
▁اسٹریمنگ	-11.4577
▁1835	-11.4578
▁1863	-11.4578
▁1846	-11.458
▁1.3	-11.4588
▁گھرانے	-11.4593
▁پہنچتا	-11.4597
▁شاک	-11.4622
▁ونڈو	-11.4643
پولیس	-11.4646
▁بائیک	-11.4648
▁باتھ	-11.465
▁Da	-11.4705
▁آنکھ	-11.4763
▁فیکٹر	-11.4777
▁خرگوش	-11.4799
▁کمپوزیشن	-11.4799
>	-11.4799
à	-11.4799
ُ	-11.4799
▁استحقاق	-11.4799
▁امیونولوجی	-11.4799
▁اندھیرے	-11.4799
▁سنجیدہ	-11.4799
▁سپاہی	-11.4799
▁شنگھائی	-11.4799
▁شکایات	-11.4799
▁قربت	-11.4799
▁لاپتہ	-11.4799
▁مسدود	-11.4799
▁ولادیمیر	-11.4799
▁کولوراڈو	-11.4799
▁استنبول	-11.4799
▁متناسب	-11.4799
▁وایلیٹ	-11.4799
▁ایڈوانس	-11.4799
▁مصور	-11.4799
▁دخل	-11.4799
▁رشوت	-11.4799
▁بائیکاٹ	-11.48
▁مسوری	-11.48
▁تیمور	-11.4801
▁پارتھین	-11.4801
▁لوفتوافے	-11.4802
▁ماہانہ	-11.4804
▁ہانگجو	-11.4805
▁کزن	-11.4805
▁لگائے	-11.4805
▁بوٹیوں	-11.4807
4.8	-11.4807
▁1874	-11.4815
▁1821	-11.4816
▁1877	-11.4817
▁ریجنل	-11.4818
▁الفا	-11.4825
▁1895	-11.4825
▁پام	-11.4851
und	-11.4874
ome	-11.4876
▁شرم	-11.4935
▁ماریو	-11.5004
▁بدعنوان	-11.5012
▁امتحان	-11.5038
▁لچک	-11.5042
ö	-11.5043
▁افواہ	-11.5043
▁شاگرد	-11.5043
π	-11.5043
▁افراتفری	-11.5043
▁برہمن	-11.5043
▁بہبود	-11.5043
▁تبلیغ	-11.5043
▁تعمیل	-11.5043
▁دروازہ	-11.5043
▁شہزادے	-11.5043
▁لوازمات	-11.5043
▁محکموں	-11.5043
▁منقطع	-11.5043
▁میٹابولک	-11.5043
▁نکولائی	-11.5043
▁وینزویلا	-11.5043
▁چانسلر	-11.5043
▁ڈپریشن	-11.5043
▁کیٹلاگ	-11.5043
▁گاندھی	-11.5043
▁ایڈونچر	-11.5043
▁1902	-11.5043
▁زیورات	-11.5043
▁ملتوی	-11.5043
▁وِگ	-11.5043
▁USB	-11.5043
▁کمیونین	-11.5043
▁کردے	-11.5043
▁زہریلا	-11.5044
▁پھوٹ	-11.5044
▁گوریلا	-11.5044
▁ریفارمیشن	-11.5045
ated	-11.5048
▁فولڈ	-11.5049
▁الدین	-11.5049
▁12،000	-11.505
▁معدومیت	-11.505
▁سمجھتی	-11.5052
▁اللہ	-11.5056
▁گود	-11.5056
▁گرلز	-11.5058
OM	-11.5058
▁1896	-11.5062
▁1889	-11.5063
▁خودکار	-11.5065
▁بیٹھا	-11.5069
ən	-11.5071
▁ہاکین	-11.5076
▁فالٹ	-11.5092
نگھم	-11.5115
فرانسیسی	-11.5148
جنوبی	-11.5149
▁قربان	-11.5172
▁زخم	-11.5207
▁انکوڈ	-11.525
▁مائک	-11.5281
▁فائن	-11.5286
▁جمناسٹ	-11.529
▁half	-11.5293
▁آبزرویٹری	-11.5293
▁انتظار	-11.5293
▁اپالاچین	-11.5293
▁تاثیر	-11.5293
▁جغرافیہ	-11.5293
▁لوزیانا	-11.5293
▁مشغول	-11.5293
▁مونٹریال	-11.5293
▁وائکنگ	-11.5293
▁الجزائر	-11.5293
▁تلافی	-11.5293
▁حقائق	-11.5293
▁فکسڈ	-11.5293
▁مصلوب	-11.5293
▁موزارٹ	-11.5293
▁میٹھے	-11.5293
▁ڈیسریلی	-11.5293
▁ہوچکے	-11.5293
▁سیڑھی	-11.5293
▁آبادکاروں	-11.5293
▁انجکشن	-11.5293
▁بتاتا	-11.5293
▁ٹرانسفارمر	-11.5293
▁ٹیریٹری	-11.5293
▁تھیوڈور	-11.5293
▁ویگاس	-11.5293
▁رحم	-11.5293
▁شافٹ	-11.5293
▁اسمارٹ	-11.5293
▁پریکٹس	-11.5294
▁جنگجوؤں	-11.5295
▁کیتھرین	-11.5295
▁ننگے	-11.5295
▁ڈیزل	-11.5296
▁کیمرے	-11.5296
▁ٹرپل	-11.5296
▁ہائپو	-11.5299
▁مردانہ	-11.5299
▁چکن	-11.5302
▁سکہ	-11.5302
▁کیفے	-11.5304
▁توہین	-11.5306
▁چیخ	-11.531
▁1851	-11.5312
ish	-11.5314
▁سولڈر	-11.5316
▁پرستار	-11.5318
▁ڈراپ	-11.532
▁1873	-11.5321
▁ناسا	-11.5326
ment	-11.5378
▁سلپ	-11.5398
▁وینیل	-11.5436
174	-11.547
▁فرن	-11.5507
▁لیکچر	-11.5534
▁آگئی	-11.5536
▁انتہا	-11.5548
ɔ	-11.5549
ō	-11.5549
▁باویریا	-11.5549
▁بوڑھے	-11.5549
▁تبادلوں	-11.5549
▁تفریق	-11.5549
▁حاکم	-11.5549
▁ستاروں	-11.5549
▁ستارہ	-11.5549
▁سمجھوتہ	-11.5549
▁سنجیدگی	-11.5549
▁شہزادوں	-11.5549
▁مترادف	-11.5549
▁نائٹروجن	-11.5549
▁نمائندگان	-11.5549
▁ورچوئل	-11.5549
▁کاربوہائیڈریٹ	-11.5549
▁ایڈنبرا	-11.5549
▁ٹوائلٹ	-11.5549
▁پلاٹینم	-11.5549
▁گالیسیا	-11.5549
▁1866	-11.5549
▁ضمیمہ	-11.5549
▁لنکاسٹر	-11.5549
▁نثر	-11.5549
▁ڈرامے	-11.5549
▁سلنڈر	-11.5549
▁مجید	-11.5549
▁ترامیم	-11.5549
▁چیلسی	-11.5549
▁انگلش	-11.5549
▁نازک	-11.5549
▁بھیڑیا	-11.5549
▁نقد	-11.555
▁جوراسک	-11.555
▁نیولیتھک	-11.555
▁شرط	-11.555
▁ڈونڈا	-11.555
▁پومپی	-11.5551
▁0.2	-11.5552
▁مخطوطہ	-11.5552
▁مشروبات	-11.5552
▁بلانک	-11.5553
▁فاسٹ	-11.5555
▁گھڑیاں	-11.5556
▁منائی	-11.5557
▁جوڑتے	-11.5557
▁بولتی	-11.5558
▁کھینچنے	-11.5559
▁رولینڈ	-11.5561
▁نکلنے	-11.5561
▁حاملہ	-11.5565
▁1894	-11.5565
▁چلاتے	-11.5568
▁رویوں	-11.5571
▁1892	-11.5574
▁گریگ	-11.5623
▁شاٹ	-11.5624
▁سلاٹ	-11.5674
3.8	-11.5681
▁براڈکاسٹر	-11.5704
اکثر	-11.5712
6.4	-11.5734
▁فرانکو	-11.5737
▁ڈب	-11.5771
▁روزگار	-11.5789
▁اتھانیس	-11.5793
▁ٹریپ	-11.5803
▁ارون	-11.5812
&	-11.5812
í	-11.5812
ɑ	-11.5812
▁اراگون	-11.5812
▁جھڑپ	-11.5812
▁ریگولیشن	-11.5812
▁صحافت	-11.5812
▁صحیفوں	-11.5812
▁عجیب	-11.5812
▁عطا	-11.5812
▁غدود	-11.5812
▁فونافوٹی	-11.5812
▁مستند	-11.5812
▁منتشر	-11.5812
▁میسوپوٹیمیا	-11.5812
▁وینچوان	-11.5812
▁چہرہ	-11.5812
▁ڈائیوسیس	-11.5812
▁بدوش	-11.5813
▁امارات	-11.5813
▁تیونس	-11.5813
▁تردید	-11.5813
▁سلائیڈ	-11.5813
▁ٹربیون	-11.5813
▁ایڈولف	-11.5813
▁انسولین	-11.5813
،000،000	-11.5813
▁گلبرٹ	-11.5813
▁پیٹرولیم	-11.5813
▁بکھر	-11.5813
▁سمرسیٹ	-11.5813
▁پٹرولیم	-11.5814
▁ٹرمپ	-11.5815
▁پیپسی	-11.5816
▁نیورونز	-11.5816
▁لتھوانیائی	-11.5816
▁سوشلزم	-11.5818
▁شفاف	-11.5818
▁نارمنڈی	-11.5819
▁انڈوں	-11.5821
▁فوسٹر	-11.5822
▁کورٹیکس	-11.5823
▁پیغامات	-11.5824
▁فلمایا	-11.5829
▁سٹرنگ	-11.5843
8.1	-11.5877
▁کینال	-11.595
▁پہل	-11.5967
▁سلا	-11.6002
▁اجتماع	-11.6058
ά	-11.6083
تفسیر	-11.6083
▁افسانہ	-11.6083
▁انحراف	-11.6083
▁زہریلے	-11.6083
▁زیادتی	-11.6083
▁ساوتھمپٹن	-11.6083
▁لمحے	-11.6083
▁مدنظر	-11.6083
▁معاوضے	-11.6083
▁پختگی	-11.6083
▁چیکوسلوواکیہ	-11.6083
▁کومکاسٹ	-11.6083
▁گھلنشیل	-11.6083
▁خالق	-11.6083
μ	-11.6083
▁منڈیوں	-11.6083
▁قاتل	-11.6083
▁بھیڑیوں	-11.6083
▁کنکریٹ	-11.6083
▁1824	-11.6083
▁سادگی	-11.6083
▁سیگمنٹ	-11.6083
▁رینگنے	-11.6083
▁پویلین	-11.6083
▁یانگزی	-11.6083
▁کیوبیک	-11.6083
▁تورات	-11.6083
لوقا	-11.6083
▁سٹرلنگ	-11.6084
▁پاشا	-11.6084
▁Kill	-11.6085
▁ناراضگی	-11.6085
▁چچا	-11.6085
▁آدھا	-11.6086
▁بساو	-11.6088
▁وارانہ	-11.6091
▁تائید	-11.6092
▁گریگوریائی	-11.6092
▁ڈوبنے	-11.6092
▁1926	-11.6093
▁اٹھاتے	-11.6093
▁ریچھ	-11.6093
▁تہوں	-11.6093
▁فارغ	-11.6094
▁خریدے	-11.6095
▁گزرتی	-11.6095
▁چڑھنے	-11.6096
▁پرنسٹن	-11.6096
2.6	-11.6099
▁300،000	-11.61
▁نینو	-11.6118
▁چیئر	-11.6143
▁ریمس	-11.6189
پروشین	-11.6307
وگرافی	-11.6319
▁اہلکار	-11.6325
▁کیپسیٹر	-11.6341
▁رفت	-11.636
ω	-11.6361
▁Mockingbird	-11.6361
▁آمریت	-11.6361
▁اٹھارہویں	-11.6361
▁بینیڈکٹ	-11.6361
▁تخریب	-11.6361
▁خیرمقدم	-11.6361
▁سرٹیفکیٹ	-11.6361
▁سیموئیل	-11.6361
▁عمومی	-11.6361
▁فینوٹائپ	-11.6361
▁قازقستان	-11.6361
▁مجموعے	-11.6361
▁مرتفع	-11.6361
▁مشاہدات	-11.6361
▁مہاجرین	-11.6361
▁میٹابولزم	-11.6361
▁میگوئل	-11.6361
▁نائنٹینڈو	-11.6361
▁کنڈیشنر	-11.6361
▁باطل	-11.6361
▁سیلولوز	-11.6361
▁صفحے	-11.6361
▁افسوس	-11.6361
▁خسرہ	-11.6361
▁مینوئل	-11.6361
▁جنازے	-11.6361
▁یونگلے	-11.6361
▁ہیملٹن	-11.6361
▁جینیفر	-11.6361
▁ہارلم	-11.6361
▁موصل	-11.6361
▁ٹوکیو	-11.6361
▁آگسٹس	-11.6361
▁اوورلیپ	-11.6361
▁لزبن	-11.6361
▁فرشتہ	-11.6362
▁شائر	-11.6363
▁خوشبو	-11.6364
▁دھوپ	-11.6364
▁یلسن	-11.6365
▁جلوس	-11.6365
▁وٹنی	-11.6366
▁پولٹری	-11.6368
▁اگلا	-11.6368
▁روبن	-11.637
▁چکی	-11.6372
▁ہائٹس	-11.6373
▁400،000	-11.6374
▁ڈھکے	-11.6374
▁مانیٹر	-11.6375
▁فلوٹ	-11.6376
کریٹک	-11.6517
زیادہ	-11.6622
▁معدنی	-11.6642
▁ریفارم	-11.6644
▁دبا	-11.6645
▁اسکواڈ	-11.6645
ṣ	-11.6646
δ	-11.6646
▁اپوسٹولک	-11.6646
▁اکیلے	-11.6646
▁برمنگھم	-11.6646
▁ذہانت	-11.6646
▁ضابطہ	-11.6646
▁طاعون	-11.6646
▁لوکوموٹو	-11.6646
▁وائسرائے	-11.6646
▁پریزنٹیشن	-11.6646
▁چاہئیں	-11.6646
▁چراغ	-11.6646
▁ہڈالگو	-11.6646
▁یکجہتی	-11.6646
حشرات	-11.6646
▁بریگھم	-11.6646
▁کاربونیٹ	-11.6646
▁موومنٹ	-11.6646
▁قلیل	-11.6646
▁سرمئی	-11.6646
▁1644	-11.6646
▁پروفائل	-11.6646
▁فرانز	-11.6646
▁ضرب	-11.6647
▁لیمبرٹ	-11.6647
▁گودام	-11.6647
▁استقبالیہ	-11.6648
▁ٹسکن	-11.665
▁درسی	-11.6651
▁پکانے	-11.6651
▁پینتھر	-11.6651
▁سلووینیا	-11.6651
▁اسرار	-11.6651
▁صدور	-11.6652
▁لیونارڈ	-11.6653
▁اترنے	-11.6657
9.8	-11.6676
▁لنگر	-11.6725
ion	-11.6737
▁حب	-11.6779
ماؤتھ	-11.6825
▁سلم	-11.6843
age	-11.6868
▁مفاد	-11.6936
▁قطار	-11.694
▁Athanasius	-11.694
▁اعدادوشمار	-11.694
▁بندوبست	-11.694
▁بیوروکریسی	-11.694
▁جیومیٹری	-11.694
▁روابط	-11.694
▁مجسموں	-11.694
▁مستثنیات	-11.694
▁معزز	-11.694
▁معینہ	-11.694
▁پروفیشنل	-11.694
▁ڈھانپ	-11.694
▁کٹھمنڈو	-11.694
▁کھنڈرات	-11.694
▁آئیڈیلزم	-11.694
▁لیکسنگٹن	-11.694
▁گپتا	-11.694
▁سیکورٹی	-11.694
▁الائنس	-11.694
▁لگاتار	-11.694
▁بیچوان	-11.694
▁حویلی	-11.694
▁اناٹومی	-11.694
▁ارنسٹ	-11.6941
▁سکریپ	-11.6941
▁پھیری	-11.6941
▁چادر	-11.6941
▁حرب	-11.6942
▁ریٹائرمنٹ	-11.6942
،600	-11.6942
▁وحی	-11.6943
پرتگالی	-11.6944
(	-11.6944
▁کینبرا	-11.6945
▁امتحانات	-11.6946
▁فلورنس	-11.6946
▁ڈھکنے	-11.6948
▁انگریز	-11.7182
بڑے	-11.7217
▁جاسوس	-11.7219
▁ٹیکنو	-11.7225
▁آبپاشی	-11.7243
▁اونٹاریو	-11.7243
▁برینڈنبرگ	-11.7243
▁بلوغت	-11.7243
▁تحائف	-11.7243
▁تقدیر	-11.7243
▁جرنیلوں	-11.7243
▁دہندہ	-11.7243
▁سنسرشپ	-11.7243
▁سکریٹری	-11.7243
▁عظمت	-11.7243
▁نعرے	-11.7243
▁پروٹوٹائپ	-11.7243
▁کنزرویٹری	-11.7243
▁ہاؤنڈ	-11.7243
▁ہاضمہ	-11.7243
▁خیمے	-11.7243
▁دہرایا	-11.7243
▁فزیکل	-11.7243
▁نیوکلیئس	-11.7243
▁چھاپہ	-11.7243
▁گشت	-11.7243
▁سدرن	-11.7243
▁دھڑوں	-11.7243
▁گندم	-11.7243
▁ہلاکتیں	-11.7243
▁ناریل	-11.7243
▁بوئنگ	-11.7244
▁کبوتر	-11.7244
▁گڑیا	-11.7244
▁جامنی	-11.7244
▁یورینس	-11.7244
▁رگڑ	-11.7244
▁پرندہ	-11.7244
▁زمرہ	-11.7245
▁فیلکس	-11.7245
▁ایڈمنڈ	-11.7245
▁لوپیز	-11.7245
▁چمکدار	-11.7246
▁نکسن	-11.7246
▁ونسٹن	-11.7246
▁فلیش	-11.7248
▁آئرس	-11.7248
▁جیانگسو	-11.7248
▁ڈارٹ	-11.7248
▁ٹکرا	-11.7248
▁دسواں	-11.7249
TF	-11.7249
▁کردیں	-11.7251
▁حسن	-11.7253
▁ربن	-11.7279
▁فرانک	-11.7335
▁پھ	-11.7524
q	-11.7554
ū	-11.7556
▁اقتباس	-11.7556
▁اغوا	-11.7556
▁الحاق	-11.7556
▁انسداد	-11.7556
▁ایمانوئل	-11.7556
▁بجانے	-11.7556
▁طلوع	-11.7556
▁عضو	-11.7556
▁عمدہ	-11.7556
▁فلسفوں	-11.7556
▁مائکروجنزم	-11.7556
▁مداحوں	-11.7556
▁موگادیشو	-11.7556
▁پاؤڈر	-11.7556
▁پروجیکشن	-11.7556
▁پروپیگنڈا	-11.7556
▁پورٹسماؤتھ	-11.7556
▁پینگوئن	-11.7556
▁چالکتا	-11.7556
▁گڑھے	-11.7556
▁آبنائے	-11.7556
▁برادران	-11.7556
▁فلامنٹ	-11.7556
▁محض	-11.7556
▁چیروکی	-11.7556
▁رئیل	-11.7556
▁1843	-11.7556
▁روانگی	-11.7556
▁سوئز	-11.7556
▁سکاؤٹ	-11.7556
▁فوجیوارا	-11.7556
▁مٹھی	-11.7556
▁بیڑا	-11.7556
▁کررہا	-11.7556
▁چوہوں	-11.7556
▁پیلیولیتھک	-11.7556
▁دوگنی	-11.7556
▁ایوینیو	-11.7557
▁ہائیڈرولک	-11.7558
▁افرو	-11.756
▁بکتر	-11.756
▁اسٹروک	-11.756
▁پرائس	-11.7561
▁جگر	-11.7562
▁اینجل	-11.7569
سنسکرت	-11.7621
بھول	-11.7708
2.8	-11.7725
▁ریپبلک	-11.7763
حرفی	-11.7801
▁سیاح	-11.7832
▁مرغی	-11.7842
ي	-11.7878
▁مشتق	-11.7878
szlachta	-11.7878
▁آزمائش	-11.7878
▁آلودہ	-11.7878
▁تحفہ	-11.7878
▁جوناتھن	-11.7878
▁خروشچوف	-11.7878
▁دانشوروں	-11.7878
▁ستارے	-11.7878
▁غلبے	-11.7878
▁متصادم	-11.7878
▁مطمئن	-11.7878
▁ٹھہرایا	-11.7878
▁پالمرسٹن	-11.7878
▁پراپرٹی	-11.7878
▁چاہیے	-11.7878
▁اوسبورن	-11.7878
▁باورچی	-11.7878
▁تھورنگین	-11.7878
▁راضی	-11.7878
▁ٹائیگرز	-11.7878
▁چھاپے	-11.7878
▁یوایسبی	-11.7878
▁زنجیر	-11.7879
▁رینڈرنگ	-11.7879
▁لبرٹی	-11.7879
▁آمیز	-11.7879
▁سیئول	-11.7879
▁موٹائی	-11.7879
▁دواؤں	-11.7879
▁پکاسو	-11.7879
▁کنگڈم	-11.7879
▁ربڑ	-11.7879
▁ٹیوشن	-11.7879
▁عیش	-11.788
▁پاؤں	-11.788
▁پاگل	-11.788
▁ٹرائلز	-11.7881
▁کھائے	-11.7882
▁سیاروں	-11.7882
▁کیسینو	-11.7883
▁یانکی	-11.7884
▁فونوگراف	-11.7893
امریکہ	-11.798
2015	-11.7989
▁براڈکاسٹ	-11.8004
▁ٹارٹ	-11.8199
▁شفا	-11.8209
▁سوازی	-11.8211
▁Princess	-11.8212
▁اجراء	-11.8212
▁تمغے	-11.8212
▁تھراواڈا	-11.8212
▁دفعات	-11.8212
▁دمشق	-11.8212
▁راجپوت	-11.8212
▁سلوواکیہ	-11.8212
▁شریعت	-11.8212
▁فاسفورس	-11.8212
▁فلوروسینٹ	-11.8212
▁فلینڈرز	-11.8212
▁مشروط	-11.8212
▁معاویہ	-11.8212
▁ٹھنڈے	-11.8212
▁کھوپڑی	-11.8212
▁کینٹربری	-11.8212
γ	-11.8212
▁CAR	-11.8212
▁انتقام	-11.8212
▁بارٹلمی	-11.8212
▁سلسلوں	-11.8212
▁سیکریٹری	-11.8212
▁ڈرائنگ	-11.8212
▁1831	-11.8212
▁کمرشل	-11.8212
دھرما	-11.8212
▁خلل	-11.8212
▁ملبے	-11.8212
▁ریشے	-11.8212
▁کینسنگٹن	-11.8212
▁ہائیڈرائڈ	-11.8212
▁پارٹنرشپ	-11.8212
▁شرٹس	-11.8213
▁زیجیانگ	-11.8213
▁الساس	-11.8215
▁ارادی	-11.8215
▁کرسکیں	-11.8216
▁لنچ	-11.8216
▁اسٹریپ	-11.8223
ہسپانوی	-11.8343
iga	-11.8346
برطانوی	-11.8347
تمام	-11.835
▁ثالث	-11.8532
▁محب	-11.855
θ	-11.8557
′	-11.8557
▁Cubs	-11.8557
▁ازبکستان	-11.8557
▁انڈپینڈنٹ	-11.8557
▁بوہیمیا	-11.8557
▁تلچھٹ	-11.8557
▁خسارے	-11.8557
▁درپیش	-11.8557
ί	-11.8914
ì	-11.9284
о	-11.9669
а	-11.9669
η	-11.9669
с	-11.9669
е	-12.0069
Ü	-12.0485
ό	-12.092
к	-12.092
۱	-12.1375
É	-12.1851
ê	-12.1851
ú	-12.1851
;	-12.2351
и	-12.2877
ἀ	-12.3433
ě	-12.3433
ś	-12.3433
ة	-12.3433
ա	-12.4021
Π	-12.4646
р	-12.4646
$	-12.509
~	-12.5313
â	-12.5313
ē	-12.5313
漢	-12.5313
۹	-12.6027
χ	-12.6027
в	-12.6027
ύ	-12.6796
š	-12.6796
्	-12.6796
字	-12.6796
υ	-12.6796
星	-12.763
σ	-12.763
َ	-12.8539
נ	-12.8539
ו	-12.8539
у	-12.8539
я	-12.8539
§	-12.8539
ô	-12.8539
י	-12.8539
β	-12.9539
ø	-12.9539
ώ	-12.9539
王	-12.9539
т	-12.9539
ר	-12.9539
Δ	-12.9539
大	-13.065
國	-13.065
ò	-13.065
£	-13.0963
ş	-13.19
ã	-13.19
ć	-13.19
ǎ	-13.19
ή	-13.19
喜	-13.19
書	-13.19
л	-13.19
·	-13.19
支	-13.3328
ð	-13.3328
ź	-13.3328
ְ	-13.3328
ה	-13.3328
ת	-13.3328
子	-13.3328
西	-13.3328
φ	-13.3328
ン	-13.3328
ध	-13.4995
र	-13.4995
ु	-13.4995
?	-13.4995
å	-13.4995
ь	-13.4995
ק	-13.4995
म	-13.4995
リ	-13.4995
书	-13.4995
元	-13.4995
府	-13.4995
衛	-13.4995
试	-13.4995
õ	-13.4995
ł	-13.4995
ž	-13.4995
東	-13.4995
أ	-13.4995
Á	-13.4995
ス	-13.4995
ħ	-13.4995
ʻ	-13.6995
ï	-13.6995
क	-13.6995
军	-13.6995
建	-13.6995
方	-13.6995
民	-13.6995
۴	-13.6995
ख	-13.6995
白	-13.6995
ִ	-13.6995
ד	-13.6995
陳	-13.6995
¥	-13.9495
û	-13.9495
ʼ	-13.9495
ы	-13.9495
한	-13.9495
ك	-13.9495
۲	-13.9495
@	-13.9495
î	-13.9495
ù	-13.9495
đ	-13.9495
Η	-13.9495
г	-13.9495
א	-13.9495
۶	-13.9495
京	-13.9495
代	-13.9495
剑	-13.9495
唐	-13.9495
帥	-13.9495
法	-13.9495
田	-13.9495
蕃	-13.9495
都	-13.9495
מ	-13.9495
ŋ	-13.9495
ー	-13.9495
后	-13.9495
Β	-14.2828
ा	-14.2828
ト	-14.2828
장	-14.2828
ý	-14.2828
þ	-14.2828
̀	-14.2828
д	-14.2828
ի	-14.2828
া	-14.2828
り	-14.2828
タ	-14.2828
プ	-14.2828
五	-14.2828
入	-14.2828
区	-14.2828
发	-14.2828
吉	-14.2828
士	-14.2828
开	-14.2828
徒	-14.2828
朝	-14.2828
督	-14.2828
藏	-14.2828
話	-14.2828
话	-14.2828
趙	-14.2828
過	-14.2828
驗	-14.2828
验	-14.2828
Λ	-14.2828
Ν	-14.2828
ս	-14.2829
口	-14.7828
持	-14.7828
Լ	-14.7828
ַ	-14.7828
त	-14.7828
ि	-14.7828
্	-14.7828
夷	-14.7828
征	-14.7828
Ø	-14.7828
з	-14.7828
교	-14.7828
Γ	-14.7828
Φ	-14.7828
ъ	-14.7828
Պ	-14.7828
բ	-14.7828
ח	-14.7828
ـ	-14.7828
ۃ	-14.7828
۰	-14.7828
۸	-14.7828
ल	-14.7828
イ	-14.7828
レ	-14.7828
ロ	-14.7828
三	-14.7828
业	-14.7828
东	-14.7828
候	-14.7828
光	-14.7828
包	-14.7828
双	-14.7828
复	-14.7828
女	-14.7828
寧	-14.7828
对	-14.7828
将	-14.7828
師	-14.7828
張	-14.7828
後	-14.7828
按	-14.7828
政	-14.7828
新	-14.7828
族	-14.7828
校	-14.7828
案	-14.7828
楊	-14.7828
江	-14.7828
浦	-14.7828
渣	-14.7828
知	-14.7828
腐	-14.7828
舍	-14.7828
親	-14.7828
讀	-14.7828
越	-14.7828
重	-14.7828
針	-14.7828
雙	-14.7828
音	-14.7828
顯	-14.7828
高	-14.7828
도	-14.7828
Ô	-14.7828
平	-14.7828
有	-14.7828
武	-14.7828
海	-14.7828
豆	-14.7828
կ	-14.7829
ր	-14.7829
ส	-14.7829
产	-14.7829
ร	-14.7829
恢	-14.7829
灾	-14.7829
น	-14.7829
า	-14.7829
隶	-15.7665
菩	-15.7666
红	-15.7667
紅	-15.7668
番	-15.7669
烏	-15.767
斯	-15.7671
基	-15.7672
圖	-15.7673
吐	-15.7674
十	-15.7675
利	-15.7676
切	-15.7677
來	-15.7678
中	-15.7679
シ	-15.768
ら	-15.7681
ぶ	-15.7682
さ	-15.7683
√	-15.7684
ὸ	-15.7685
ụ	-15.7686
ố	-15.7687
۷	-15.7688
ۂ	-15.7689
ٍ	-15.769
ש	-15.7691
ל	-15.7692
ׂ	-15.7693
ָ	-15.7694
ֵ	-15.7695
П	-15.7696
К	-15.7697
ζ	-15.7698
Ψ	-15.7699
̊	-15.77
ơ	-15.7701
Š	-15.7702
Ş	-15.7703
œ	-15.7704
ę	-15.7705
ė	-15.7706
Ē	-15.7707
ą	-15.7708
해	-15.7709
조	-15.771
방	-15.7711
기	-15.7712
韓	-15.7713
震	-15.7714
福	-15.7715
爭	-15.7716
渤	-15.7717
泥	-15.7718
汶	-15.7719
术	-15.772
技	-15.7721
戰	-15.7722
成	-15.7723
川	-15.7724
地	-15.7725
土	-15.7726
南	-15.7727
ミ	-15.7728
フ	-15.7729
コ	-15.773
キ	-15.7731
ァ	-15.7732
ῆ	-15.7733
ष	-15.7734
ठ	-15.7735
ى	-15.7736
إ	-15.7737
ּ	-15.7738
ж	-15.7739
Р	-15.774
В	-15.7741
ψ	-15.7742
Æ	-15.7743
戦	-15.7744
思	-15.7745
力	-15.7746
俄	-15.7747
争	-15.7748
丹	-15.7749
Ṣ	-15.775
ٔ	-15.7751
צ	-15.7752
հ	-15.7753
̧	-15.7754
́	-15.7755
ļ	-15.7756
ğ	-15.7757
Õ	-15.7758
Î	-15.7759
卫	-15.776
⁄	-15.7761
द	-15.7762
ն	-15.7763
յ	-15.7764
ш	-15.7765
Σ	-15.7766
Α	-15.7767
ń	-15.7768
전	-15.7769
쟁	-15.777
국	-15.7771
₹	-15.7772
Ś	-15.7773
Ā	-15.7774
±	-15.7775
}	-15.7776
{	-15.7777
ṭ	-15.7778
й	-15.7779
ë	-15.778
Ö	-15.7781
铺	-15.7782
紫	-15.7783
水	-15.7784
库	-15.7785
坪	-15.7786
❤	-15.7787
•	-15.7788
м	-15.7789
Κ	-15.779
Ż	-15.7791
›	-15.7792
ْ	-15.7793
̃	-15.7794
İ	-15.7795
航	-15.7796
统	-15.7797
系	-15.7798
斗	-15.7799
导	-15.78
北	-15.7801
ῖ	-15.7802
Χ	-15.7803
<	-15.7804
ḥ	-15.7805
ξ	-15.7806
ß	-15.7807
۳	-15.7808
ّ	-15.7809
^	-15.781
→	-15.7811
€	-15.7812
۵	-15.7813
ç	-15.7814
н	-15.7815
_	-15.7816
ṇ	-15.7817
ı	-15.7818
έ	-15.7819
ñ	-15.782
#	-15.7821
×	-15.7822
τ	-15.7823
ً	-15.7824
[	-15.7825
ژ	-15.7826
\	-15.7827
न	-15.7828
ম	-15.7828
র	-15.7828
স	-15.7828
ἐ	-15.7828
ゼ	-15.7828
ಚ	-15.7828
ಶ	-15.7828
್	-15.7828
ṛ	-15.7828
の	-15.7828
ダ	-15.7828
ル	-15.7828
대	-15.7828
예	-15.7828
¡	-15.7828
義	-15.7828
¢	-15.7828
ġ	-15.7828
ő	-15.7828
ɨ	-15.7828
Ε	-15.7828
Є	-15.7828
А	-15.7828
Х	-15.7828
б	-15.7828
ч	-15.7828
ց	-15.7828
ז	-15.7828
ם	-15.7828
ס	-15.7828
פ	-15.7828
ः	-15.7828
प	-15.7828
জ	-15.7828
প	-15.7828
য	-15.7828
ল	-15.7828
ಮ	-15.7828
ಿ	-15.7828
ỉ	-15.7828
ồ	-15.7828
ờ	-15.7828
ὐ	-15.7828
ὶ	-15.7828
は	-15.7828
ク	-15.7828
セ	-15.7828
チ	-15.7828
ピ	-15.7828
ャ	-15.7828
ュ	-15.7828
ラ	-15.7828
ワ	-15.7828
丁	-15.7828
上	-15.7828
主	-15.7828
义	-15.7828
事	-15.7828
仔	-15.7828
他	-15.7828
会	-15.7828
伝	-15.7828
伯	-15.7828
何	-15.7828
侍	-15.7828
像	-15.7828
凹	-15.7828
前	-15.7828
剧	-15.7828
叠	-15.7828
古	-15.7828
和	-15.7828
块	-15.7828
坤	-15.7828
城	-15.7828
堂	-15.7828
塊	-15.7828
変	-15.7828
天	-15.7828
奴	-15.7828
妹	-15.7828
安	-15.7828
審	-15.7828
巡	-15.7828
帝	-15.7828
廷	-15.7828
忒	-15.7828
总	-15.7828
提	-15.7828
撫	-15.7828
教	-15.7828
日	-15.7828
時	-15.7828
替	-15.7828
本	-15.7828
杭	-15.7828
標	-15.7828
比	-15.7828
汉	-15.7828
泉	-15.7828
济	-15.7828
準	-15.7828
潮	-15.7828
片	-15.7828
特	-15.7828
理	-15.7828
甫	-15.7828
異	-15.7828
社	-15.7828
秀	-15.7828
緑	-15.7828
緣	-15.7828
緩	-15.7828
经	-15.7828
耶	-15.7828
臣	-15.7828
興	-15.7828
船	-15.7828
良	-15.7828
苏	-15.7828
苗	-15.7828
草	-15.7828
萨	-15.7828
蒲	-15.7828
薩	-15.7828
虫	-15.7828
蝶	-15.7828
表	-15.7828
覆	-15.7828
見	-15.7828
言	-15.7828
説	-15.7828
議	-15.7828
豊	-15.7828
起	-15.7828
軍	-15.7828
逸	-15.7828
道	-15.7828
金	-15.7828
陵	-15.7828
陽	-15.7828
館	-15.7828
體	-15.7828
그	-15.7828
독	-15.7828
로	-15.7828
리	-15.7828
수	-15.7828
스	-15.7828
회	-15.7828
"	-15.7828
Ó	-15.7828
ग	-15.7828
刘	-15.7828
印	-15.7828
拼	-15.7828
朱	-15.7828
皇	-15.7828
绍	-15.7828
ċ	-15.7828
Ł	-15.7828
下	-15.7828
兵	-15.7828
文	-15.7828
松	-15.7828
х	-15.7829
Հ	-15.7829
տ	-15.7829
パ	-15.7829
仕	-15.7829
常	-15.7829
様	-15.7829
用	-15.7829
п	-15.7829
ง	-15.7829
อ	-15.7829
ิ	-15.7829
เ	-15.7829
โ	-15.7829
ظ	-15.7829
ย	-15.7829
ศ	-15.7829
ี	-15.7829
